<pad>	0
<unk>	0
<s>	0
</s>	0
<2en>	0
<2de>	0
<2ru>	0
<2zh>	0
▁t	-0
er	-1
in	-2
en	-3
▁a	-4
he	-5
on	-6
▁the	-7
at	-8
es	-9
▁s	-10
▁o	-11
▁d	-12
it	-13
re	-14
▁w	-15
nd	-16
is	-17
ch	-18
or	-19
an	-20
ion	-21
ou	-22
al	-23
▁of	-24
ed	-25
▁b	-26
▁in	-27
ar	-28
▁f	-29
▁c	-30
▁p	-31
▁m	-32
ing	-33
▁to	-34
▁and	-35
▁h	-36
▁I	-37
ent	-38
as	-39
om	-40
▁S	-41
le	-42
ic	-43
▁A	-44
▁th	-45
el	-46
▁п	-47
▁n	-48
st	-49
ation	-50
▁e	-51
▁T	-52
ie	-53
ro	-54
ст	-55
▁g	-56
il	-57
▁u	-58
ен	-59
▁в	-60
et	-61
▁с	-62
▁C	-63
▁re	-64
▁1	-65
▁-	-66
▁2	-67
ur	-68
▁M	-69
ig	-70
ct	-71
то	-72
▁y	-73
ut	-74
ich	-75
▁н	-76
im	-77
ра	-78
em	-79
▁D	-80
▁W	-81
00	-82
ra	-83
un	-84
ol	-85
▁l	-86
▁(	-87
ot	-88
но	-89
..	-90
▁P	-91
▁you	-92
▁is	-93
▁be	-94
▁о	-95
ve	-96
▁и	-97
id	-98
▁on	-99
ir	-100
▁B	-101
▁for	-102
ро	-103
▁v	-104
▁E	-105
ter	-106
ce	-107
▁H	-108
us	-109
▁G	-110
ко	-111
ow	-112
го	-113
ре	-114
▁N	-115
▁that	-116
▁r	-117
▁по	-118
ly	-119
ment	-120
te	-121
▁F	-122
▁R	-123
▁д	-124
ere	-125
ad	-126
▁it	-127
ни	-128
ет	-129
ay	-130
ess	-131
ли	-132
▁al	-133
ver	-134
ies	-135
ec	-136
▁wh	-137
am	-138
▁The	-139
ith	-140
est	-141
▁con	-142
th	-143
▁und	-144
▁м	-145
▁pro	-146
ul	-147
ab	-148
▁k	-149
▁L	-150
ung	-151
те	-152
ва	-153
▁U	-154
op	-155
ль	-156
▁an	-157
ны	-158
se	-159
ag	-160
ри	-161
▁st	-162
▁with	-163
ht	-164
ber	-165
ени	-166
um	-167
▁der	-168
ка	-169
end	-170
▁на	-171
▁O	-172
ла	-173
ort	-174
▁as	-175
на	-176
and	-177
if	-178
▁me	-179
за	-180
omm	-181
ть	-182
▁die	-183
ld	-184
▁K	-185
ers	-186
во	-187
▁ein	-188
ate	-189
ill	-190
▁б	-191
pp	-192
ke	-193
ist	-194
да	-195
...	-196
▁ч	-197
▁z	-198
та	-199
od	-200
ity	-201
art	-202
▁was	-203
iv	-204
▁200	-205
▁J	-206
▁de	-207
os	-208
ци	-209
▁are	-210
▁su	-211
▁не	-212
ant	-213
ер	-214
▁у	-215
▁not	-216
ight	-217
▁se	-218
hr	-219
▁he	-220
ff	-221
ло	-222
▁or	-223
▁Y	-224
ck	-225
▁V	-226
▁St	-227
ations	-228
qu	-229
ge	-230
ive	-231
▁In	-232
▁ha	-233
▁by	-234
ust	-235
01	-236
ell	-237
ial	-238
▁im	-239
▁ex	-240
ain	-241
▁we	-242
ем	-243
nt	-244
ти	-245
▁sh	-246
ся	-247
rom	-248
▁at	-249
▁Th	-250
icht	-251
ould	-252
all	-253
▁ne	-254
ri	-255
▁this	-256
oc	-257
uf	-258
ind	-259
▁3	-260
ach	-261
ect	-262
ми	-263
ud	-264
ви	-265
▁res	-266
ле	-267
ки	-268
▁have	-269
ions	-270
▁ко	-271
▁le	-272
▁j	-273
▁Un	-274
▁э	-275
ten	-276
iz	-277
▁про	-278
▁all	-279
▁со	-280
▁ра	-281
our	-282
ome	-283
ди	-284
ore	-285
ine	-286
ational	-287
▁что	-288
▁за	-289
ep	-290
ia	-291
ес	-292
200	-293
▁do	-294
tern	-295
ard	-296
ля	-297
ier	-298
▁un	-299
▁das	-300
ру	-301
ru	-302
▁from	-303
▁19	-304
▁"	-305
▁go	-306
▁П	-307
che	-308
ure	-309
ens	-310
ak	-311
ста	-312
▁You	-313
vel	-314
ord	-315
сти	-316
▁It	-317
ür	-318
ary	-319
iss	-320
▁до	-321
▁ab	-322
▁С	-323
la	-324
ей	-325
lic	-326
▁ad	-327
port	-328
▁den	-329
▁我	-330
▁com	-331
▁об	-332
▁Wh	-333
▁Н	-334
▁ch	-335
ance	-336
мо	-337
▁ist	-338
ap	-339
ма	-340
ther	-341
▁von	-342
ork	-343
ения	-344
▁В	-345
ib	-346
▁О	-347
cc	-348
orm	-349
▁zu	-350
▁will	-351
▁К	-352
▁We	-353
ip	-354
▁4	-355
ll	-356
▁sp	-357
▁your	-358
rou	-359
ast	-360
▁5	-361
ost	-362
ub	-363
▁0	-364
▁er	-365
og	-366
res	-367
▁its	-368
ember	-369
▁при	-370
▁part	-371
ated	-372
ran	-373
ду	-374
fer	-375
ount	-376
▁201	-377
▁can	-378
ft	-379
▁so	-380
ence	-381
sch	-382
▁als	-383
▁Comm	-384
▁des	-385
ice	-386
▁т	-387
ry	-388
▁ag	-389
her	-390
до	-391
ве	-392
uch	-393
де	-394
▁Z	-395
▁ver	-396
ction	-397
хо	-398
▁го	-399
ited	-400
we	-401
ных	-402
out	-403
▁к	-404
▁от	-405
ah	-406
der	-407
▁cont	-408
oll	-409
ok	-410
▁М	-411
ert	-412
▁inc	-413
lo	-414
▁out	-415
lich	-416
по	-417
**	-418
бо	-419
ann	-420
▁Sie	-421
▁which	-422
ener	-423
ates	-424
▁mit	-425
ire	-426
же	-427
▁auf	-428
га	-429
▁это	-430
du	-431
▁бы	-432
▁He	-433
velop	-434
▁nicht	-435
▁right	-436
▁то	-437
now	-438
щи	-439
able	-440
ement	-441
▁has	-442
ake	-443
ong	-444
▁во	-445
rop	-446
ous	-447
не	-448
ug	-449
▁я	-450
ча	-451
▁Т	-452
сто	-453
form	-454
▁вы	-455
one	-456
age	-457
ear	-458
▁comp	-459
ical	-460
chen	-461
▁up	-462
▁6	-463
▁ge	-464
си	-465
▁е	-466
▁app	-467
▁мо	-468
ult	-469
ress	-470
und	-471
ne	-472
▁Re	-473
ass	-474
▁ка	-475
ств	-476
▁те	-477
▁Д	-478
▁their	-479
▁wir	-480
ternational	-481
чи	-482
ss	-483
▁am	-484
▁а	-485
ide	-486
▁my	-487
▁reg	-488
▁für	-489
gen	-490
▁en	-491
▁пре	-492
се	-493
de	-494
▁An	-495
▁man	-496
тель	-497
ime	-498
aus	-499
ian	-500
ac	-501
▁imp	-502
pt	-503
▁та	-504
ied	-505
kt	-506
▁no	-507
▁know	-508
be	-509
ww	-510
are	-511
ern	-512
▁United	-513
tt	-514
▁ре	-515
ue	-516
ции	-517
▁7	-518
▁there	-519
rt	-520
▁No	-521
ren	-522
▁exp	-523
ons	-524
▁Pro	-525
ram	-526
ities	-527
),	-528
▁dem	-529
▁work	-530
ры	-531
erv	-532
den	-533
ose	-534
▁dis	-535
ition	-536
лу	-537
ной	-538
жи	-539
лю	-540
erm	-541
▁been	-542
ien	-543
зо	-544
ink	-545
gan	-546
▁they	-547
itt	-548
▁rec	-549
//	-550
ного	-551
▁acc	-552
ik	-553
ack	-554
▁А	-555
ution	-556
ild	-557
▁es	-558
▁Ch	-559
па	-560
со	-561
ase	-562
over	-563
▁us	-564
ments	-565
国家	-566
▁develop	-567
▁i	-568
▁Я	-569
ish	-570
ение	-571
gh	-572
▁Con	-573
vent	-574
▁10	-575
oun	-576
▁also	-577
ission	-578
▁one	-579
act	-580
委员	-581
委员会	-582
су	-583
19	-584
eneral	-585
▁had	-586
会议	-587
ike	-588
▁comm	-589
ces	-590
itte	-591
▁would	-592
ite	-593
ign	-594
://	-595
▁prov	-596
▁你	-597
ang	-598
▁pe	-599
▁what	-600
▁were	-601
ph	-602
▁pre	-603
▁int	-604
▁ich	-605
сь	-606
▁cons	-607
mer	-608
ги	-609
▁act	-610
ще	-611
▁should	-612
ame	-613
reat	-614
ond	-615
▁but	-616
▁count	-617
▁And	-618
▁other	-619
▁sa	-620
ally	-621
iel	-622
▁Nations	-623
ме	-624
▁з	-625
▁about	-626
▁И	-627
ку	-628
▁who	-629
ook	-630
ze	-631
▁Ich	-632
▁“	-633
uss	-634
联合	-635
▁sch	-636
).	-637
▁get	-638
▁eine	-639
▁per	-640
▁any	-641
lud	-642
urop	-643
▁Ver	-644
▁tra	-645
▁Al	-646
com	-647
▁ass	-648
ttp	-649
▁http	-650
▁Sch	-651
▁them	-652
▁ent	-653
nen	-654
▁pl	-655
▁8	-656
▁her	-657
/1	-658
问题	-659
▁just	-660
са	-661
uman	-662
ши	-663
сть	-664
▁bet	-665
sp	-666
▁dies	-667
▁Er	-668
▁г	-669
▁9	-670
▁eff	-671
▁States	-672
▁his	-673
ня	-674
▁раз	-675
мен	-676
ну	-677
ungen	-678
me	-679
ные	-680
▁Die	-681
▁Sec	-682
▁like	-683
ace	-684
ven	-685
▁Sp	-686
▁report	-687
ew	-688
▁sich	-689
▁him	-690
▁time	-691
国际	-692
/2	-693
ric	-694
ident	-695
▁international	-696
▁12	-697
ark	-698
▁aus	-699
▁need	-700
.1	-701
▁де	-702
▁What	-703
▁из	-704
ounc	-705
▁don	-706
▁te	-707
工作	-708
▁supp	-709
lement	-710
gram	-711
му	-712
yst	-713
▁sie	-714
ile	-715
ise	-716
int	-717
▁sub	-718
▁off	-719
men	-720
▁more	-721
▁ме	-722
ail	-723
ings	-724
▁This	-725
ittee	-726
▁Europ	-727
ors	-728
▁По	-729
▁under	-730
▁co	-731
▁year	-732
resent	-733
per	-734
ret	-735
▁qu	-736
ely	-737
▁sec	-738
▁requ	-739
ystem	-740
▁Le	-741
联合国	-742
con	-743
▁here	-744
ния	-745
ahr	-746
▁pr	-747
▁war	-748
ben	-749
ouncil	-750
iew	-751
жа	-752
ject	-753
▁Be	-754
▁wer	-755
ря	-756
ade	-757
ative	-758
ank	-759
▁hab	-760
▁199	-761
igen	-762
▁Rep	-763
über	-764
ree	-765
▁Э	-766
▁pol	-767
av	-768
ov	-769
▁want	-770
▁includ	-771
▁De	-772
▁[	-773
▁Committee	-774
че	-775
ater	-776
ublic	-777
▁Council	-778
▁dec	-779
▁resp	-780
вет	-781
▁под	-782
发展	-783
ischen	-784
шь	-785
▁кото	-786
ор	-787
ты	-788
пе	-789
报告	-790
▁Б	-791
▁Г	-792
ory	-793
▁ro	-794
▁пра	-795
▁our	-796
ности	-797
лен	-798
ein	-799
ries	-800
anc	-801
▁для	-802
▁du	-803
hen	-804
ный	-805
▁ob	-806
▁if	-807
▁did	-808
▁Р	-809
▁ar	-810
rans	-811
ick	-812
aw	-813
вы	-814
ется	-815
▁hat	-816
enn	-817
▁now	-818
wo	-819
get	-820
▁15	-821
formation	-822
ual	-823
ско	-824
▁sind	-825
чес	-826
ganiz	-827
▁some	-828
▁Ко	-829
ious	-830
ures	-831
▁ind	-832
▁partic	-833
вер	-834
ific	-835
▁So	-836
▁так	-837
▁rel	-838
▁inter	-839
eration	-840
▁dass	-841
▁over	-842
own	-843
▁Se	-844
▁conc	-845
стра	-846
▁ты	-847
chn	-848
its	-849
ound	-850
olution	-851
urity	-852
▁again	-853
oss	-854
▁ва	-855
组织	-856
xt	-857
▁11	-858
esch	-859
▁add	-860
ecial	-861
▁um	-862
▁все	-863
ют	-864
▁gu	-865
би	-866
▁ф	-867
▁pers	-868
ble	-869
▁werden	-870
ту	-871
▁18	-872
▁meet	-873
▁На	-874
au	-875
▁rep	-876
▁пред	-877
▁über	-878
ек	-879
rit	-880
ating	-881
▁dur	-882
land	-883
les	-884
ople	-885
ство	-886
ства	-887
бы	-888
▁That	-889
▁new	-890
ере	-891
ional	-892
irst	-893
一个	-894
ob	-895
ced	-896
ner	-897
我们	-898
igh	-899
very	-900
ility	-901
hal	-902
▁сво	-903
:1	-904
▁20	-905
ше	-906
▁fin	-907
▁#	-908
▁into	-909
зи	-910
▁development	-911
▁only	-912
▁хо	-913
▁human	-914
eth	-915
▁inv	-916
orld	-917
▁ни	-918
▁Das	-919
▁those	-920
▁see	-921
ute	-922
▁par	-923
.2	-924
lect	-925
▁countries	-926
▁uns	-927
▁Mr	-928
ющи	-929
:2	-930
про	-931
ism	-932
вать	-933
ays	-934
▁но	-935
▁she	-936
ys	-937
oint	-938
ular	-939
▁как	-940
nment	-941
▁system	-942
▁support	-943
бе	-944
etz	-945
:3	-946
ty	-947
каза	-948
hn	-949
air	-950
▁think	-951
:0	-952
conom	-953
az	-954
www	-955
omen	-956
roup	-957
▁But	-958
▁inst	-959
▁–	-960
ät	-961
ng	-962
ан	-963
fore	-964
old	-965
▁ra	-966
olog	-967
wn	-968
ön	-969
аль	-970
▁Ar	-971
▁such	-972
▁16	-973
ause	-974
▁这	-975
▁Ass	-976
▁vor	-977
▁Oh	-978
rough	-979
/0	-980
▁people	-981
об	-982
▁Dec	-983
cy	-984
▁cl	-985
▁est	-986
▁got	-987
▁oder	-988
▁Europe	-989
onn	-990
▁rights	-991
▁Commission	-992
▁could	-993
▁through	-994
▁бо	-995
vers	-996
▁when	-997
▁бу	-998
▁Art	-999
▁implement	-1000
▁Is	-1001
▁Ab	-1002
pr	-1003
ives	-1004
▁made	-1005
uth	-1006
▁Af	-1007
▁good	-1008
关于	-1009
▁在	-1010
▁Mar	-1011
▁may	-1012
10	-1013
ans	-1014
ges	-1015
ungs	-1016
▁trans	-1017
ollow	-1018
▁well	-1019
提供	-1020
▁shall	-1021
▁program	-1022
12	-1023
ove	-1024
ische	-1025
政府	-1026
▁UN	-1027
:5	-1028
/200	-1029
жен	-1030
▁17	-1031
▁how	-1032
als	-1033
сле	-1034
ood	-1035
red	-1036
ices	-1037
ient	-1038
mp	-1039
спо	-1040
▁кон	-1041
方面	-1042
рга	-1043
▁nach	-1044
rib	-1045
ным	-1046
ision	-1047
▁дол	-1048
vention	-1049
elf	-1050
leg	-1051
amp	-1052
他们	-1053
▁14	-1054
▁rem	-1055
це	-1056
:4	-1057
▁,	-1058
ible	-1059
icle	-1060
▁these	-1061
abl	-1062
▁У	-1063
▁wird	-1064
▁For	-1065
жно	-1066
▁Ge	-1067
▁зна	-1068
▁take	-1069
▁ин	-1070
6,	-1071
▁serv	-1072
▁«	-1073
▁auch	-1074
гра	-1075
▁information	-1076
ful	-1077
▁ke	-1078
ession	-1079
ween	-1080
emb	-1081
su	-1082
cht	-1083
тов	-1084
▁da	-1085
пра	-1086
▁ми	-1087
▁Ad	-1088
▁sein	-1089
uc	-1090
ак	-1091
▁bel	-1092
up	-1093
ров	-1094
гда	-1095
ract	-1096
ference	-1097
ние	-1098
▁13	-1099
пи	-1100
▁ста	-1101
决议	-1102
▁resolution	-1103
▁between	-1104
▁att	-1105
▁make	-1106
社会	-1107
ange	-1108
aff	-1109
▁back	-1110
ination	-1111
▁bec	-1112
▁рас	-1113
ствен	-1114
вля	-1115
▁where	-1116
▁child	-1117
==	-1118
代表	-1119
以及	-1120
▁two	-1121
▁first	-1122
▁All	-1123
▁national	-1124
▁How	-1125
▁As	-1126
▁Secret	-1127
aft	-1128
alk	-1129
▁call	-1130
▁years	-1131
▁organiz	-1132
执行	-1133
▁than	-1134
▁contin	-1135
ene	-1136
raft	-1137
raph	-1138
▁—	-1139
ige	-1140
oth	-1141
▁zur	-1142
▁follow	-1143
▁General	-1144
вл	-1145
▁prop	-1146
▁Wir	-1147
▁мен	-1148
包括	-1149
▁его	-1150
hl	-1151
▁very	-1152
通过	-1153
▁Te	-1154
行动	-1155
▁Reg	-1156
▁consid	-1157
▁Ч	-1158
ife	-1159
▁Me	-1160
▁tak	-1161
ict	-1162
▁produ	-1163
▁которы	-1164
day	-1165
▁State	-1166
▁Е	-1167
▁Ein	-1168
▁leg	-1169
5,	-1170
情况	-1171
▁ли	-1172
其他	-1173
安全	-1174
▁Это	-1175
▁including	-1176
ски	-1177
▁sc	-1178
ring	-1179
▁import	-1180
▁/	-1181
▁(1	-1182
стви	-1183
▁law	-1184
▁use	-1185
▁effect	-1186
ms	-1187
▁cur	-1188
дин	-1189
▁haben	-1190
row	-1191
ша	-1192
änd	-1193
▁look	-1194
urn	-1195
тив	-1196
▁З	-1197
▁bas	-1198
199	-1199
▁said	-1200
ont	-1201
▁Or	-1202
overnment	-1203
机构	-1204
дет	-1205
▁我们	-1206
▁find	-1207
▁ма	-1208
ights	-1209
▁There	-1210
/5	-1211
有关	-1212
umber	-1213
any	-1214
ении	-1215
秘书	-1216
elt	-1217
unity	-1218
▁stat	-1219
000	-1220
▁fe	-1221
▁member	-1222
ке	-1223
от	-1224
进行	-1225
isch	-1226
мы	-1227
rent	-1228
conomic	-1229
он	-1230
кой	-1231
ное	-1232
cess	-1233
ste	-1234
▁einer	-1235
▁women	-1236
▁provid	-1237
lear	-1238
▁They	-1239
什么	-1240
▁Ex	-1241
▁Ты	-1242
特别	-1243
rie	-1244
other	-1245
ium	-1246
▁cent	-1247
▁activ	-1248
els	-1249
iten	-1250
embly	-1251
▁down	-1252
err	-1253
▁May	-1254
▁must	-1255
▁不	-1256
▁say	-1257
гу	-1258
дар	-1259
är	-1260
▁+	-1261
▁hel	-1262
rim	-1263
▁pla	-1264
ocial	-1265
жет	-1266
▁30	-1267
fe	-1268
rü	-1269
▁Со	-1270
▁against	-1271
io	-1272
所有	-1273
kay	-1274
▁every	-1275
ды	-1276
rag	-1277
▁af	-1278
ister	-1279
ards	-1280
▁Well	-1281
▁22	-1282
▁wur	-1283
▁disc	-1284
пу	-1285
rat	-1286
▁car	-1287
▁request	-1288
▁min	-1289
▁way	-1290
▁einen	-1291
▁21	-1292
这些	-1293
▁let	-1294
ргани	-1295
▁International	-1296
uck	-1297
▁Да	-1298
ться	-1299
▁воз	-1300
▁establ	-1301
ina	-1302
omp	-1303
ция	-1304
рова	-1305
utions	-1306
arm	-1307
бя	-1308
▁set	-1309
▁Assembly	-1310
rä	-1311
opt	-1312
▁Es	-1313
▁си	-1314
ций	-1315
▁wie	-1316
irect	-1317
uthor	-1318
eah	-1319
▁ful	-1320
ax	-1321
▁dif	-1322
ommend	-1323
▁.	-1324
人权	-1325
hip	-1326
led	-1327
ave	-1328
▁If	-1329
▁nur	-1330
▁going	-1331
ning	-1332
▁She	-1333
▁Par	-1334
▁пере	-1335
▁года	-1336
没有	-1337
理事	-1338
经济	-1339
▁On	-1340
ER	-1341
ger	-1342
▁25	-1343
▁меня	-1344
дер	-1345
****	-1346
▁meas	-1347
▁стра	-1348
3,	-1349
hre	-1350
▁aw	-1351
方案	-1352
▁techn	-1353
iat	-1354
/201	-1355
gy	-1356
ough	-1357
▁2008	-1358
▁European	-1359
жду	-1360
▁он	-1361
ходи	-1362
▁kann	-1363
▁bei	-1364
▁end	-1365
▁mon	-1366
▁Aus	-1367
ved	-1368
▁мы	-1369
resident	-1370
-2	-1371
▁да	-1372
▁Aug	-1373
▁ste	-1374
fü	-1375
▁Do	-1376
ages	-1377
▁Und	-1378
▁дру	-1379
▁рабо	-1380
hed	-1381
▁Q	-1382
ему	-1383
сно	-1384
ines	-1385
ural	-1386
ince	-1387
round	-1388
▁number	-1389
▁session	-1390
ts	-1391
▁conf	-1392
ote	-1393
3.	-1394
▁...	-1395
▁ihr	-1396
enden	-1397
General	-1398
▁particular	-1399
imm	-1400
iert	-1401
ству	-1402
▁kön	-1403
ily	-1404
▁art	-1405
stand	-1406
7,	-1407
理事会	-1408
▁concern	-1409
▁current	-1410
ная	-1411
rate	-1412
ath	-1413
рганиза	-1414
ар	-1415
▁Л	-1416
▁или	-1417
▁help	-1418
ration	-1419
▁cap	-1420
▁prom	-1421
▁Convention	-1422
ght	-1423
ред	-1424
▁then	-1425
30	-1426
合作	-1427
▁се	-1428
ению	-1429
▁coop	-1430
▁Sh	-1431
▁meeting	-1432
▁ins	-1433
▁process	-1434
view	-1435
▁incre	-1436
ulation	-1437
iter	-1438
▁Part	-1439
ody	-1440
▁же	-1441
▁Min	-1442
▁oper	-1443
сту	-1444
ower	-1445
▁come	-1446
ном	-1447
▁financ	-1448
fl	-1449
htm	-1450
ень	-1451
cept	-1452
▁poss	-1453
lichen	-1454
▁Secretary	-1455
▁ser	-1456
▁som	-1457
liche	-1458
▁view	-1459
6.	-1460
af	-1461
ters	-1462
▁sit	-1463
ady	-1464
▁does	-1465
▁implementation	-1466
▁long	-1467
▁adopt	-1468
▁einem	-1469
▁order	-1470
▁чтобы	-1471
公约	-1472
inc	-1473
onna	-1474
лько	-1475
зы	-1476
род	-1477
▁recommend	-1478
▁лю	-1479
ilit	-1480
ral	-1481
ever	-1482
▁best	-1483
▁world	-1484
4,	-1485
:00	-1486
urther	-1487
rol	-1488
▁ве	-1489
schaft	-1490
ха	-1491
▁op	-1492
▁бе	-1493
大会	-1494
med	-1495
....	-1496
▁zum	-1497
-1	-1498
oy	-1499
▁public	-1500
stit	-1501
стоя	-1502
thing	-1503
ix	-1504
anz	-1505
auf	-1506
▁'	-1507
建议	-1508
▁他	-1509
она	-1510
ommen	-1511
судар	-1512
нима	-1513
ivers	-1514
▁gonna	-1515
▁present	-1516
osed	-1517
▁durch	-1518
▁Afric	-1519
iven	-1520
▁before	-1521
▁их	-1522
▁2000	-1523
▁prote	-1524
20	-1525
лож	-1526
▁At	-1527
▁hand	-1528
ining	-1529
orts	-1530
▁Der	-1531
▁equ	-1532
▁mir	-1533
енных	-1534
▁level	-1535
gl	-1536
活动	-1537
bal	-1538
ück	-1539
▁represent	-1540
ek	-1541
妇女	-1542
min	-1543
▁being	-1544
▁assist	-1545
ources	-1546
▁stand	-1547
▁accord	-1548
▁country	-1549
ants	-1550
▁after	-1551
▁peace	-1552
▁own	-1553
ool	-1554
lease	-1555
uation	-1556
▁sm	-1557
ober	-1558
▁су	-1559
▁require	-1560
50	-1561
▁pur	-1562
▁Post	-1563
▁appro	-1564
▁polic	-1565
▁author	-1566
9,	-1567
▁Не	-1568
▁пу	-1569
▁са	-1570
▁Republic	-1571
ща	-1572
par	-1573
wer	-1574
alth	-1575
ather	-1576
▁place	-1577
▁Security	-1578
▁Fe	-1579
▁even	-1580
▁many	-1581
▁found	-1582
7.	-1583
▁children	-1584
▁»	-1585
ран	-1586
рем	-1587
inal	-1588
чески	-1589
▁most	-1590
2,	-1591
2.	-1592
iol	-1593
▁det	-1594
ör	-1595
ept	-1596
мот	-1597
ined	-1598
▁ens	-1599
ality	-1600
ements	-1601
ething	-1602
▁President	-1603
1,	-1604
вя	-1605
▁unter	-1606
pl	-1607
区域	-1608
▁также	-1609
ешь	-1610
▁security	-1611
▁activities	-1612
▁ref	-1613
1.	-1614
зна	-1615
▁Мы	-1616
aten	-1617
▁too	-1618
▁sign	-1619
▁belie	-1620
5.	-1621
agen	-1622
▁Ind	-1623
儿童	-1624
ale	-1625
ized	-1626
ruct	-1627
▁main	-1628
лы	-1629
alt	-1630
▁ви	-1631
vant	-1632
agraph	-1633
▁measures	-1634
可能	-1635
▁ac	-1636
▁issu	-1637
ца	-1638
▁:	-1639
▁Mit	-1640
▁noch	-1641
▁draft	-1642
▁great	-1643
4.	-1644
▁bu	-1645
ished	-1646
采取	-1647
тся	-1648
▁My	-1649
▁государ	-1650
▁Х	-1651
един	-1652
▁Develop	-1653
▁et	-1654
▁hier	-1655
▁quest	-1656
▁respect	-1657
фи	-1658
▁Off	-1659
▁Jahr	-1660
▁group	-1661
需要	-1662
ait	-1663
▁Don	-1664
▁Yeah	-1665
agement	-1666
atz	-1667
▁предста	-1668
▁Jun	-1669
▁$	-1670
▁ph	-1671
ents	-1672
▁high	-1673
▁soll	-1674
▁consider	-1675
ба	-1676
人员	-1677
项目	-1678
iod	-1679
man	-1680
etzt	-1681
mitt	-1682
ving	-1683
ность	-1684
▁cour	-1685
缔约	-1686
▁Ze	-1687
▁Pol	-1688
▁dep	-1689
▁мне	-1690
▁Union	-1691
▁вопро	-1692
сси	-1693
▁life	-1694
▁within	-1695
ocu	-1696
org	-1697
фор	-1698
-200	-1699
▁result	-1700
▁Government	-1701
aj	-1702
世界	-1703
可以	-1704
规定	-1705
let	-1706
ache	-1707
▁gen	-1708
illion	-1709
itions	-1710
和平	-1711
知道	-1712
ouse	-1713
▁proble	-1714
жд	-1715
这一	-1716
ock	-1717
▁Pl	-1718
▁tr	-1719
▁между	-1720
▁particip	-1721
▁fun	-1722
ieder	-1723
▁because	-1724
."	-1725
根据	-1726
нии	-1727
▁bis	-1728
▁Member	-1729
▁cooperation	-1730
ент	-1731
бу	-1732
ву	-1733
rong	-1734
loy	-1735
chte	-1736
▁Was	-1737
ieren	-1738
提出	-1739
aking	-1740
▁mark	-1741
▁person	-1742
▁project	-1743
40	-1744
▁fl	-1745
ased	-1746
▁ges	-1747
lobal	-1748
▁happ	-1749
▁vers	-1750
▁regard	-1751
▁mat	-1752
▁wurde	-1753
hm	-1754
决定	-1755
ken	-1756
vis	-1757
▁polit	-1758
▁last	-1759
▁av	-1760
orry	-1761
▁agre	-1762
▁können	-1763
▁members	-1764
▁че	-1765
keit	-1766
▁слу	-1767
▁same	-1768
▁Ф	-1769
权利	-1770
bar	-1771
ize	-1772
дни	-1773
пре	-1774
▁To	-1775
▁жи	-1776
ried	-1777
▁something	-1778
3)	-1779
fen	-1780
▁1.	-1781
▁Nov	-1782
▁special	-1783
▁financial	-1784
lar	-1785
ений	-1786
gth	-1787
▁(2	-1788
▁EU	-1789
ting	-1790
▁mehr	-1791
▁real	-1792
imes	-1793
▁non	-1794
iß	-1795
вой	-1796
▁day	-1797
▁loc	-1798
▁mod	-1799
▁fact	-1800
▁mich	-1801
chie	-1802
iron	-1803
ender	-1804
yp	-1805
клю	-1806
▁PM	-1807
▁rele	-1808
ention	-1809
▁Conference	-1810
дь	-1811
法律	-1812
geb	-1813
▁ча	-1814
11	-1815
гла	-1816
▁ev	-1817
sten	-1818
вори	-1819
ellen	-1820
▁talk	-1821
▁Co	-1822
秘书长	-1823
acht	-1824
▁Ber	-1825
▁ret	-1826
циаль	-1827
必须	-1828
▁el	-1829
▁Auf	-1830
▁Not	-1831
▁Pre	-1832
II	-1833
先生	-1834
емы	-1835
лет	-1836
ained	-1837
ata	-1838
▁23	-1839
措施	-1840
ков	-1841
▁Он	-1842
▁fam	-1843
▁both	-1844
4)	-1845
of	-1846
ics	-1847
▁Об	-1848
▁three	-1849
▁Ка	-1850
▁тебя	-1851
▁point	-1852
▁still	-1853
▁period	-1854
▁efforts	-1855
pro	-1856
▁Ph	-1857
ness	-1858
▁much	-1859
主义	-1860
app	-1861
▁Am	-1862
▁Но	-1863
▁fund	-1864
▁December	-1865
▁Development	-1866
8.	-1867
use	-1868
дела	-1869
icial	-1870
iness	-1871
▁addition	-1872
-0	-1873
ähr	-1874
",	-1875
ende	-1876
▁Can	-1877
вания	-1878
▁respons	-1879
net	-1880
том	-1881
▁Ag	-1882
▁wenn	-1883
bs	-1884
teg	-1885
▁Apr	-1886
riend	-1887
▁docu	-1888
任何	-1889
继续	-1890
▁Du	-1891
▁ext	-1892
ability	-1893
▁really	-1894
▁further	-1895
EC	-1896
▁Jan	-1897
▁pos	-1898
ecess	-1899
ought	-1900
▁cond	-1901
▁used	-1902
▁economic	-1903
支持	-1904
▁Fl	-1905
▁Ent	-1906
▁они	-1907
isten	-1908
▁viol	-1909
▁during	-1910
▁2.	-1911
▁En	-1912
▁це	-1913
eren	-1914
ivil	-1915
▁New	-1916
▁col	-1917
ittle	-1918
▁address	-1919
▁organizations	-1920
кла	-1921
▁Мо	-1922
▁didn	-1923
▁form	-1924
▁tell	-1925
iation	-1926
".	-1927
▁ed	-1928
gest	-1929
▁God	-1930
▁bro	-1931
ually	-1932
▁aber	-1933
EN	-1934
ными	-1935
▁Fre	-1936
▁Let	-1937
▁cre	-1938
▁2016	-1939
isions	-1940
ization	-1941
зу	-1942
▁fre	-1943
▁important	-1944
);	-1945
▁Вы	-1946
▁spe	-1947
▁case	-1948
▁achie	-1949
ai	-1950
▁&	-1951
计划	-1952
▁sur	-1953
▁Rights	-1954
▁social	-1955
▁without	-1956
15	-1957
iet	-1958
ott	-1959
▁198	-1960
▁ear	-1961
ience	-1962
udget	-1963
▁alle	-1964
▁give	-1965
▁paragraph	-1966
▁Group	-1967
技术	-1968
▁вс	-1969
лове	-1970
▁Oct	-1971
▁fac	-1972
▁rest	-1973
▁following	-1974
hnen	-1975
▁эти	-1976
▁impro	-1977
eli	-1978
мер	-1979
нов	-1980
ска	-1981
ield	-1982
▁Mon	-1983
成员	-1984
重要	-1985
zen	-1986
▁em	-1987
号决议	-1988
▁Human	-1989
▁invest	-1990
нк	-1991
aut	-1992
irl	-1993
ared	-1994
▁Про	-1995
▁gover	-1996
▁разви	-1997
▁Posted	-1998
▁account	-1999
主席	-2000
ES	-2001
uß	-2002
▁beg	-2003
▁Germ	-2004
▁врем	-2005
▁может	-2006
▁€	-2007
nis	-2008
есь	-2009
▁cor	-2010
▁обра	-2011
▁taken	-2012
▁regional	-2013
/6	-2014
如果	-2015
att	-2016
sel	-2017
otel	-2018
ональ	-2019
▁mean	-2020
▁будет	-2021
▁после	-2022
IN	-2023
бли	-2024
смот	-2025
▁Man	-2026
ified	-2027
viron	-2028
народ	-2029
▁second	-2030
вед	-2031
кра	-2032
▁Res	-2033
▁Vor	-2034
▁lead	-2035
):	-2036
▁Что	-2037
▁since	-2038
sh	-2039
▁AM	-2040
▁Yes	-2041
▁never	-2042
▁def	-2043
▁был	-2044
▁mein	-2045
▁pract	-2046
▁possible	-2047
▁establish	-2048
9.	-2049
▁第	-2050
努力	-2051
ahl	-2052
lie	-2053
ues	-2054
▁little	-2055
vironment	-2056
▁2010	-2057
▁Dies	-2058
▁Just	-2059
▁stud	-2060
▁боль	-2061
▁necess	-2062
)。	-2063
ün	-2064
▁但	-2065
加强	-2066
▁За	-2067
heit	-2068
eptember	-2069
▁programme	-2070
注意	-2071
lin	-2072
руп	-2073
тия	-2074
ления	-2075
ibility	-2076
ird	-2077
ases	-2078
ются	-2079
▁put	-2080
▁spec	-2081
usiness	-2082
▁provided	-2083
▁services	-2084
ON	-2085
кого	-2086
▁play	-2087
▁differ	-2088
▁resources	-2089
gt	-2090
▁24	-2091
▁Bo	-2092
enda	-2093
▁jed	-2094
iving	-2095
保护	-2096
ене	-2097
ума	-2098
ital	-2099
▁kill	-2100
▁access	-2101
▁September	-2102
ис	-2103
ris	-2104
при	-2105
iger	-2106
ъедин	-2107
▁care	-2108
▁помо	-2109
▁„	-2110
基金	-2111
for	-2112
mes	-2113
ком	-2114
▁Jo	-2115
▁dr	-2116
▁Her	-2117
▁ask	-2118
▁bes	-2119
▁August	-2120
AN	-2121
▁Tra	-2122
▁emp	-2123
ology	-2124
▁которые	-2125
的人	-2126
вает	-2127
▁redu	-2128
▁start	-2129
▁health	-2130
▁provide	-2131
ets	-2132
ins	-2133
▁сто	-2134
rength	-2135
▁Организа	-2136
▁Gu	-2137
self	-2138
▁2004	-2139
▁Come	-2140
▁habe	-2141
▁Article	-2142
▁那	-2143
ows	-2144
▁Fin	-2145
▁nat	-2146
▁осу	-2147
error	-2148
▁2006	-2149
▁челове	-2150
пас	-2151
ответ	-2152
▁each	-2153
▁mach	-2154
▁было	-2155
AT	-2156
不是	-2157
认为	-2158
ica	-2159
жда	-2160
▁Ju	-2161
▁wel	-2162
ament	-2163
影响	-2164
gel	-2165
nung	-2166
▁November	-2167
草案	-2168
ную	-2169
чно	-2170
assen	-2171
▁rece	-2172
▁term	-2173
▁party	-2174
▁Special	-2175
▁contrib	-2176
▁interest	-2177
rab	-2178
▁dar	-2179
▁sim	-2180
gress	-2181
▁World	-2182
▁diese	-2183
▁ensure	-2184
▁product	-2185
▁relevant	-2186
▁currently	-2187
▁им	-2188
ctor	-2189
лись	-2190
ющих	-2191
▁Fra	-2192
▁med	-2193
▁word	-2194
▁instit	-2195
要求	-2196
ats	-2197
▁28	-2198
▁Fr	-2199
▁vis	-2200
▁vom	-2201
▁ком	-2202
lus	-2203
▁Ne	-2204
▁dam	-2205
▁old	-2206
▁2001	-2207
▁char	-2208
▁испо	-2209
▁applic	-2210
шо	-2211
грам	-2212
▁сле	-2213
▁dist	-2214
outh	-2215
▁sol	-2216
▁won	-2217
▁Okay	-2218
建立	-2219
的一	-2220
och	-2221
elle	-2222
ened	-2223
▁bin	-2224
▁Amer	-2225
▁avail	-2226
▁issues	-2227
раль	-2228
▁lie	-2229
▁direct	-2230
▁review	-2231
▁Объедин	-2232
促进	-2233
erc	-2234
ify	-2235
uen	-2236
тет	-2237
▁Pr	-2238
unic	-2239
▁Hey	-2240
▁Pal	-2241
▁обес	-2242
/4	-2243
rund	-2244
▁unt	-2245
uring	-2246
▁April	-2247
▁areas	-2248
▁elect	-2249
ilities	-2250
▁Program	-2251
▁соответ	-2252
▁是	-2253
off	-2254
oney	-2255
ществ	-2256
▁Russ	-2257
▁быть	-2258
▁дела	-2259
ilding	-2260
minist	-2261
▁bring	-2262
▁working	-2263
▁continue	-2264
▁assistance	-2265
--	-2266
ibt	-2267
mit	-2268
orn	-2269
пол	-2270
hmen	-2271
ived	-2272
sche	-2273
▁Why	-2274
▁свя	-2275
/3	-2276
less	-2277
▁area	-2278
系统	-2279
▁Im	-2280
届会议	-2281
▁enc	-2282
ening	-2283
stell	-2284
▁gem	-2285
▁var	-2286
▁why	-2287
allen	-2288
ences	-2289
▁2005	-2290
▁full	-2291
▁question	-2292
ash	-2293
лем	-2294
если	-2295
ption	-2296
▁held	-2297
▁while	-2298
▁adopted	-2299
▁political	-2300
bt	-2301
oms	-2302
▁Pe	-2303
▁try	-2304
▁With	-2305
artment	-2306
IS	-2307
пы	-2308
line	-2309
ross	-2310
▁(200	-2311
▁head	-2312
▁treat	-2313
政策	-2314
▁son	-2315
ertain	-2316
▁among	-2317
ification	-2318
18	-2319
IC	-2320
援助	-2321
ars	-2322
ope	-2323
beit	-2324
ists	-2325
ской	-2326
▁October	-2327
▁article	-2328
▁Объединенных	-2329
.4	-2330
лее	-2331
▁ее	-2332
▁Ges	-2333
▁Now	-2334
▁Кон	-2335
▁July	-2336
▁item	-2337
▁Наций	-2338
管理	-2339
ule	-2340
▁****	-2341
▁2002	-2342
▁2007	-2343
▁cost	-2344
▁times	-2345
▁сказа	-2346
▁budget	-2347
资源	-2348
üss	-2349
дей	-2350
лся	-2351
▁bo	-2352
▁Feb	-2353
▁strength	-2354
1)	-2355
现在	-2356
дно	-2357
цию	-2358
▁Go	-2359
▁Um	-2360
duct	-2361
▁val	-2362
▁dich	-2363
витель	-2364
▁decision	-2365
▁situation	-2366
.,	-2367
ett	-2368
ves	-2369
▁opp	-2370
▁pop	-2371
▁того	-2372
▁accordance	-2373
rif	-2374
▁==	-2375
▁ро	-2376
▁Cent	-2377
▁долж	-2378
▁Where	-2379
▁might	-2380
AR	-2381
因为	-2382
сте	-2383
▁01	-2384
▁Su	-2385
▁том	-2386
ariat	-2387
incip	-2388
▁Komm	-2389
▁clear	-2390
60	-2391
ward	-2392
▁aff	-2393
ropri	-2394
форма	-2395
49	-2396
已经	-2397
武器	-2398
行为	-2399
lim	-2400
nex	-2401
chan	-2402
▁Car	-2403
▁lar	-2404
чения	-2405
▁явля	-2406
▁ident	-2407
▁50	-2408
шения	-2409
▁если	-2410
▁отно	-2411
▁обеспе	-2412
22	-2413
lt	-2414
isc	-2415
urs	-2416
сов	-2417
▁gr	-2418
▁ус	-2419
▁June	-2420
▁priv	-2421
▁month	-2422
▁осуществ	-2423
▁community	-2424
ID	-2425
缔约国	-2426
fahr	-2427
▁Are	-2428
▁Fran	-2429
▁educ	-2430
▁home	-2431
вления	-2432
▁legal	-2433
▁dieser	-2434
▁protection	-2435
ks	-2436
服务	-2437
能力	-2438
ler	-2439
por	-2440
лей	-2441
▁Qu	-2442
▁mar	-2443
▁fuck	-2444
ential	-2445
▁better	-2446
▁friend	-2447
▁27	-2448
stru	-2449
▁Who	-2450
▁gut	-2451
▁keep	-2452
uclear	-2453
▁million	-2454
▁Ü	-2455
目标	-2456
ged	-2457
стро	-2458
▁occ	-2459
▁tot	-2460
▁она	-2461
ccess	-2462
▁capac	-2463
▁други	-2464
▁developing	-2465
üt	-2466
斯坦	-2467
非洲	-2468
▁ис	-2469
▁Rec	-2470
▁che	-2471
▁gew	-2472
▁нас	-2473
确保	-2474
lex	-2475
дов	-2476
йте	-2477
hing	-2478
▁house	-2479
▁integ	-2480
▁thing	-2481
▁discuss	-2482
▁requested	-2483
li	-2484
führ	-2485
ways	-2486
▁Comp	-2487
▁girl	-2488
▁love	-2489
▁осно	-2490
▁action	-2491
▁another	-2492
▁thought	-2493
▁necessary	-2494
5)	-2495
▁08	-2496
▁па	-2497
ierung	-2498
▁doing	-2499
▁small	-2500
▁policy	-2501
▁Organiz	-2502
▁%	-2503
▁Ра	-2504
▁Те	-2505
ners	-2506
коно	-2507
▁sat	-2508
▁жен	-2509
▁away	-2510
▁control	-2511
举行	-2512
roß	-2513
пер	-2514
ajor	-2515
▁init	-2516
▁свои	-2517
▁deleg	-2518
▁сдела	-2519
▁programmes	-2520
部分	-2521
ron	-2522
▁ну	-2523
▁(00	-2524
▁име	-2525
ances	-2526
▁Pers	-2527
▁Inter	-2528
▁только	-2529
nah	-2530
▁ur	-2531
▁Nor	-2532
▁bre	-2533
▁При	-2534
▁уча	-2535
▁ihre	-2536
▁kind	-2537
▁staff	-2538
▁parties	-2539
▁appropri	-2540
▁effective	-2541
▁Организации	-2542
提交	-2543
ete	-2544
itor	-2545
oman	-2546
стре	-2547
▁bed	-2548
▁pay	-2549
unden	-2550
▁этого	-2551
35	-2552
▁*	-2553
环境	-2554
чет	-2555
ator	-2556
▁Eng	-2557
▁ihn	-2558
▁inf	-2559
ready	-2560
▁sure	-2561
▁тебе	-2562
▁Africa	-2563
▁global	-2564
▁general	-2565
▁National	-2566
▁международ	-2567
itz	-2568
ogn	-2569
▁3.	-2570
alls	-2571
laim	-2572
▁100	-2573
▁Mär	-2574
▁полу	-2575
▁когда	-2576
▁believe	-2577
the	-2578
▁Ihr	-2579
▁bra	-2580
▁etw	-2581
arian	-2582
glich	-2583
▁show	-2584
17	-2585
美元	-2586
utz	-2587
▁26	-2588
urch	-2589
седа	-2590
▁сек	-2591
▁okay	-2592
安全理事会	-2593
▁market	-2594
▁object	-2595
14	-2596
各国	-2597
зда	-2598
ivid	-2599
влен	-2600
▁пла	-2601
ected	-2602
▁data	-2603
▁expl	-2604
▁необ	-2605
▁different	-2606
зво	-2607
рен	-2608
сам	-2609
的报告	-2610
ität	-2611
ended	-2612
▁feel	-2613
▁могу	-2614
▁terror	-2615
▁understand	-2616
hä	-2617
so	-2618
чу	-2619
▁40	-2620
rior	-2621
▁время	-2622
OR	-2623
сы	-2624
作为	-2625
全球	-2626
кры	-2627
сли	-2628
vious	-2629
▁исполь	-2630
gu	-2631
uge	-2632
бря	-2633
чен	-2634
ikel	-2635
ling	-2636
ster	-2637
▁обла	-2638
ром	-2639
▁Isra	-2640
▁pass	-2641
ically	-2642
▁course	-2643
▁wieder	-2644
▁management	-2645
13	-2646
16	-2647
和国	-2648
iety	-2649
▁lang	-2650
▁post	-2651
▁express	-2652
▁информа	-2653
ex	-2654
协调	-2655
有效	-2656
aur	-2657
rad	-2658
come	-2659
▁men	-2660
зопас	-2661
▁Nach	-2662
▁done	-2663
▁upon	-2664
▁region	-2665
▁already	-2666
▁♪	-2667
reg	-2668
▁mö	-2669
▁zw	-2670
льта	-2671
▁War	-2672
ering	-2673
▁Janu	-2674
▁land	-2675
▁field	-2676
▁proced	-2677
▁програм	-2678
实现	-2679
amm	-2680
▁Wo	-2681
▁km	-2682
▁ку	-2683
tain	-2684
▁Get	-2685
errit	-2686
▁Zeit	-2687
文件	-2688
abe	-2689
elb	-2690
▁US	-2691
的工作	-2692
▁Bel	-2693
▁ann	-2694
▁нет	-2695
ively	-2696
▁When	-2697
gether	-2698
idence	-2699
▁civil	-2700
▁возмо	-2701
▁приня	-2702
▁Office	-2703
▁business	-2704
▁document	-2705
▁together	-2706
▁available	-2707
kl	-2708
信息	-2709
ipp	-2710
▁la	-2711
▁фи	-2712
ason	-2713
lung	-2714
wend	-2715
ением	-2716
▁поли	-2717
▁strate	-2718
▁persons	-2719
▁capacity	-2720
0)	-2721
▁x	-2722
▁Ш	-2723
▁ц	-2724
▁4.	-2725
rodu	-2726
ules	-2727
ework	-2728
▁exist	-2729
▁invol	-2730
▁always	-2731
▁princip	-2732
▁progress	-2733
发言	-2734
我的	-2735
igt	-2736
lig	-2737
.201	-2738
ocol	-2739
▁(1)	-2740
▁Dep	-2741
essen	-2742
leich	-2743
▁März	-2744
aterial	-2745
▁change	-2746
ramework	-2747
▁bl	-2748
ides	-2749
erung	-2750
митет	-2751
▁environment	-2752
8,	-2753
ps	-2754
审议	-2755
aly	-2756
body	-2757
▁Ste	-2758
▁zwe	-2759
reich	-2760
ection	-2761
▁eines	-2762
▁today	-2763
▁propos	-2764
▁problem	-2765
▁subject	-2766
▁training	-2767
持续	-2768
work	-2769
лось	-2770
▁mov	-2771
ently	-2772
▁Look	-2773
ctions	-2774
▁Unter	-2775
▁cover	-2776
▁exper	-2777
▁means	-2778
▁говори	-2779
▁continu	-2780
▁необходи	-2781
▁ш	-2782
因此	-2783
地区	-2784
ilt	-2785
▁31	-2786
▁gra	-2787
▁пер	-2788
uture	-2789
▁буду	-2790
▁были	-2791
▁этом	-2792
▁night	-2793
共和国	-2794
zeit	-2795
▁197	-2796
▁dir	-2797
▁name	-2798
▁turn	-2799
тельно	-2800
▁следу	-2801
▁around	-2802
23	-2803
这种	-2804
部门	-2805
вен	-2806
▁dre	-2807
▁neg	-2808
▁есть	-2809
▁water	-2810
ainable	-2811
▁things	-2812
25	-2813
参与	-2814
irc	-2815
▁foc	-2816
▁lim	-2817
▁sow	-2818
terne	-2819
▁Febru	-2820
▁March	-2821
▁Organization	-2822
你的	-2823
▁09	-2824
▁Sc	-2825
▁То	-2826
airs	-2827
hand	-2828
десь	-2829
ника	-2830
▁2003	-2831
▁next	-2832
▁sehr	-2833
▁2016,	-2834
▁Thank	-2835
▁schon	-2836
▁Совет	-2837
▁remain	-2838
▁Economic	-2839
жу	-2840
sue	-2841
ний	-2842
▁Во	-2843
▁exc	-2844
▁met	-2845
▁run	-2846
▁Work	-2847
▁prof	-2848
▁major	-2849
▁Artikel	-2850
.0	-2851
小组	-2852
政治	-2853
▁До	-2854
enef	-2855
ющие	-2856
istan	-2857
▁прав	-2858
atives	-2859
▁consult	-2860
▁X	-2861
就是	-2862
ser	-2863
atur	-2864
▁Ant	-2865
ского	-2866
▁2009	-2867
▁Ihre	-2868
▁Serv	-2869
▁viel	-2870
▁оста	-2871
▁Germany	-2872
▁anything	-2873
зопасности	-2874
使用	-2875
研究	-2876
bur	-2877
▁ру	-2878
注意到	-2879
▁See	-2880
▁Как	-2881
▁сот	-2882
▁Your	-2883
▁Über	-2884
ин	-2885
作出	-2886
eld	-2887
rug	-2888
▁04	-2889
▁Sw	-2890
laub	-2891
erman	-2892
ktion	-2893
richt	-2894
üssen	-2895
halten	-2896
▁Europä	-2897
▁amount	-2898
▁appropriate	-2899
99	-2900
▁好	-2901
教育	-2902
考虑	-2903
que	-2904
ней	-2905
abor	-2906
▁soc	-2907
▁role	-2908
mitted	-2909
▁basis	-2910
▁indic	-2911
▁needs	-2912
▁Minister	-2913
▁Programme	-2914
by	-2915
▁>	-2916
怎么	-2917
hes	-2918
▁07	-2919
▁Ма	-2920
usam	-2921
▁list	-2922
▁mechan	-2923
än	-2924
人的	-2925
isk	-2926
▁wo	-2927
pect	-2928
▁future	-2929
▁conflic	-2930
irm	-2931
raw	-2932
соб	-2933
▁дея	-2934
чение	-2935
▁week	-2936
ultural	-2937
▁family	-2938
▁Information	-2939
.3	-2940
EL	-2941
RL	-2942
得到	-2943
解决	-2944
кон	-2945
atch	-2946
▁far	-2947
▁dann	-2948
▁проб	-2949
▁immer	-2950
usammen	-2951
циональ	-2952
▁employ	-2953
▁nuclear	-2954
▁related	-2955
CH	-2956
дя	-2957
ью	-2958
▁•	-2959
获得	-2960
eln	-2961
▁Бо	-2962
▁hin	-2963
▁вер	-2964
публи	-2965
▁eing	-2966
▁grow	-2967
▁miss	-2968
▁benef	-2969
▁claim	-2970
▁money	-2971
▁prior	-2972
6)	-2973
▁有	-2974
一些	-2975
之间	-2976
关系	-2977
这样	-2978
isl	-2979
▁29	-2980
▁му	-2981
ских	-2982
▁Chr	-2983
▁委员会	-2984
tocol	-2985
▁keine	-2986
▁oblig	-2987
▁случа	-2988
▁Palest	-2989
▁success	-2990
▁recommendations	-2991
AS	-2992
▁од	-2993
halt	-2994
iden	-2995
ised	-2996
▁вас	-2997
order	-2998
▁Cour	-2999
▁hear	-3000
igkeit	-3001
▁offer	-3002
▁Social	-3003
▁education	-3004
欧洲	-3005
erb	-3006
дол	-3007
лия	-3008
ests	-3009
▁Aber	-3010
▁Land	-3011
▁plan	-3012
▁Hotel	-3013
▁докла	-3014
▁called	-3015
IT	-3016
hö	-3017
··	-3018
主要	-3019
ode	-3020
way	-3021
ете	-3022
wick	-3023
▁hal	-3024
▁pat	-3025
ample	-3026
aster	-3027
▁four	-3028
▁sust	-3029
▁resol	-3030
▁sorry	-3031
stitution	-3032
0.	-3033
The	-3034
adt	-3035
ple	-3036
рии	-3037
▁05	-3038
▁Ни	-3039
▁他们	-3040
ecut	-3041
html	-3042
tens	-3043
▁private	-3044
▁conditions	-3045
▁established	-3046
CN	-3047
——	-3048
取得	-3049
增加	-3050
预算	-3051
лов	-3052
щей	-3053
ceed	-3054
ступ	-3055
теля	-3056
▁Act	-3057
▁Gem	-3058
▁daß	-3059
▁mus	-3060
▁whe	-3061
▁Нет	-3062
earch	-3063
▁Гене	-3064
▁focus	-3065
▁given	-3066
▁expert	-3067
27	-3068
不能	-3069
条约	-3070
ban	-3071
fol	-3072
▁06	-3073
зова	-3074
▁kid	-3075
▁mor	-3076
рудни	-3077
▁gibt	-3078
▁Если	-3079
▁Mitgl	-3080
▁coord	-3081
▁права	-3082
▁compet	-3083
▁diesem	-3084
▁official	-3085
TC	-3086
aß	-3087
人民	-3088
uro	-3089
▁чем	-3090
▁дума	-3091
▁этой	-3092
▁China	-3093
▁power	-3094
其中	-3095
领域	-3096
лан	-3097
▁00	-3098
▁ту	-3099
代表团	-3100
ided	-3101
тому	-3102
▁adv	-3103
▁уже	-3104
▁груп	-3105
▁сист	-3106
▁müssen	-3107
na	-3108
enc	-3109
load	-3110
чень	-3111
▁Bar	-3112
▁open	-3113
oreign	-3114
▁Direct	-3115
▁framework	-3116
▁provisions	-3117
▁她	-3118
审查	-3119
ник	-3120
рой	-3121
▁Dem	-3122
▁mal	-3123
itive	-3124
▁Bank	-3125
▁ever	-3126
▁mind	-3127
▁Gesch	-3128
▁chang	-3129
▁agenda	-3130
▁Parties	-3131
▁reports	-3132
2)	-3133
not	-3134
▁03	-3135
发展中	-3136
iles	-3137
вого	-3138
▁lot	-3139
▁came	-3140
▁созда	-3141
▁design	-3142
▁African	-3143
▁Генераль	-3144
mm	-3145
sc	-3146
ез	-3147
作用	-3148
恐怖	-3149
法院	-3150
这个	-3151
▁Br	-3152
▁Nä	-3153
eder	-3154
schl	-3155
▁дет	-3156
ensch	-3157
кономи	-3158
▁Reply	-3159
▁based	-3160
▁school	-3161
▁Univers	-3162
▁individ	-3163
▁сотрудни	-3164
▁человека	-3165
jp	-3166
开展	-3167
意见	-3168
lah	-3169
uer	-3170
▁1,	-3171
золю	-3172
стве	-3173
▁жиз	-3174
▁тер	-3175
ource	-3176
▁Here	-3177
▁left	-3178
kommen	-3179
▁Board	-3180
▁leave	-3181
▁increase	-3182
期间	-3183
表示	-3184
讨论	-3185
▁пе	-3186
ours	-3187
▁few	-3188
thers	-3189
ternal	-3190
▁Court	-3191
▁женщи	-3192
▁commit	-3193
ös	-3194
议程	-3195
▁sk	-3196
▁His	-3197
▁ide	-3198
apons	-3199
inian	-3200
veral	-3201
▁Char	-3202
▁days	-3203
▁всех	-3204
ending	-3205
▁Trans	-3206
▁allow	-3207
▁cases	-3208
▁issue	-3209
▁jetzt	-3210
▁здесь	-3211
▁please	-3212
▁However	-3213
28	-3214
wh	-3215
кт	-3216
нь	-3217
一步	-3218
强调	-3219
的各	-3220
▁II	-3221
lish	-3222
▁Arab	-3223
▁пунк	-3224
▁until	-3225
▁service	-3226
▁technical	-3227
UN	-3228
第二	-3229
тер	-3230
тор	-3231
▁60	-3232
▁Ja	-3233
▁Ну	-3234
秘书处	-3235
▁Bed	-3236
▁air	-3237
▁sex	-3238
▁дей	-3239
▁тех	-3240
▁total	-3241
▁проек	-3242
▁secret	-3243
▁certain	-3244
▁projects	-3245
7)	-3246
”,	-3247
бра	-3248
▁pm	-3249
лась	-3250
▁eng	-3251
▁Она	-3252
▁кто	-3253
▁тво	-3254
ither	-3255
wards	-3256
▁была	-3257
▁таки	-3258
▁Ihnen	-3259
▁least	-3260
ructure	-3261
▁groups	-3262
▁inform	-3263
▁legisl	-3264
▁recogn	-3265
▁record	-3266
事务	-3267
正在	-3268
öff	-3269
кое	-3270
eter	-3271
есси	-3272
▁еще	-3273
▁High	-3274
▁Then	-3275
▁comb	-3276
▁groß	-3277
▁mult	-3278
dition	-3279
▁gener	-3280
▁perform	-3281
▁деятель	-3282
▁therefore	-3283
bu	-3284
利亚	-3285
ury	-3286
ühr	-3287
oura	-3288
▁Wenn	-3289
▁hast	-3290
▁trade	-3291
▁matter	-3292
▁taking	-3293
▁поддер	-3294
laration	-3295
▁mechanism	-3296
33	-3297
90	-3298
go	-3299
▁х	-3300
它们	-3301
战略	-3302
美国	-3303
自己	-3304
ekt	-3305
его	-3306
кре	-3307
的问题	-3308
iele	-3309
orte	-3310
sequ	-3311
▁Tag	-3312
▁big	-3313
▁typ	-3314
▁вам	-3315
▁мер	-3316
▁тем	-3317
epend	-3318
▁read	-3319
▁etwas	-3320
▁sector	-3321
▁является	-3322
dd	-3323
uh	-3324
的是	-3325
akt	-3326
ana	-3327
sta	-3328
емо	-3329
ена	-3330
▁By	-3331
ffic	-3332
teil	-3333
лага	-3334
щего	-3335
▁sag	-3336
▁yet	-3337
▁Так	-3338
▁вклю	-3339
▁above	-3340
▁seine	-3341
▁wrong	-3342
lection	-3343
▁months	-3344
▁include	-3345
▁организа	-3346
实施	-3347
mal	-3348
oot	-3349
äch	-3350
вых	-3351
кти	-3352
的情况	-3353
akes	-3354
stag	-3355
▁beh	-3356
▁fol	-3357
▁jud	-3358
▁net	-3359
asing	-3360
▁Good	-3361
▁хоро	-3362
▁begin	-3363
▁event	-3364
▁полож	-3365
▁assess	-3366
▁become	-3367
▁January	-3368
▁various	-3369
▁required	-3370
9/	-3371
co	-3372
ee	-3373
mb	-3374
共同	-3375
ada	-3376
jpg	-3377
kte	-3378
see	-3379
▁Dr	-3380
utes	-3381
▁kein	-3382
▁site	-3383
▁told	-3384
▁просто	-3385
▁concerned	-3386
AL	-3387
bl	-3388
应该	-3389
ief	-3390
ude	-3391
▁Го	-3392
ames	-3393
inen	-3394
text	-3395
цион	-3396
▁enh	-3397
▁дан	-3398
lands	-3399
▁deal	-3400
▁muss	-3401
▁pres	-3402
▁stay	-3403
▁vict	-3404
ounter	-3405
ческой	-3406
▁local	-3407
▁unser	-3408
▁более	-3409
government	-3410
▁everything	-3411
45	-3412
ях	-3413
你们	-3414
确定	-3415
联盟	-3416
贸易	-3417
▁5.	-3418
рабо	-3419
▁10.	-3420
▁Kon	-3421
▁One	-3422
▁тре	-3423
igung	-3424
ories	-3425
stant	-3426
▁Haus	-3427
▁dest	-3428
▁free	-3429
发展中国家	-3430
▁Chair	-3431
▁light	-3432
riminal	-3433
▁challen	-3434
▁considered	-3435
OM	-3436
冲突	-3437
希望	-3438
必要	-3439
satz	-3440
side	-3441
▁Wie	-3442
▁eas	-3443
▁vol	-3444
▁wor	-3445
▁2015	-3446
▁purp	-3447
▁room	-3448
▁сооб	-3449
▁2008,	-3450
▁These	-3451
▁согла	-3452
▁opport	-3453
▁return	-3454
77	-3455
St	-3456
кс	-3457
▁?	-3458
犯罪	-3459
/16	-3460
lad	-3461
aben	-3462
lose	-3463
ному	-3464
▁body	-3465
▁cust	-3466
▁(00:0	-3467
▁South	-3468
ilitary	-3469
▁Please	-3470
▁резолю	-3471
▁developed	-3472
24	-3473
以便	-3474
利用	-3475
发生	-3476
指出	-3477
ior	-3478
луч	-3479
的国家	-3480
aren	-3481
▁Sub	-3482
ately	-3483
ethod	-3484
▁bere	-3485
▁deli	-3486
▁проц	-3487
▁thank	-3488
itarian	-3489
▁Russian	-3490
▁products	-3491
▁individual	-3492
▁authorities	-3493
php	-3494
тра	-3495
▁Ro	-3496
▁ap	-3497
进一步	-3498
▁Mal	-3499
▁Рес	-3500
icher	-3501
▁dieses	-3502
▁example	-3503
▁prevent	-3504
▁additional	-3505
▁government	-3506
▁institutions	-3507
21	-3508
开始	-3509
▁Law	-3510
▁aim	-3511
▁Cont	-3512
▁Herr	-3513
▁Vers	-3514
▁link	-3515
▁stop	-3516
▁text	-3517
▁wait	-3518
▁сред	-3519
▁refer	-3520
▁право	-3521
ecially	-3522
ordnung	-3523
▁econom	-3524
▁promot	-3525
▁nothing	-3526
▁protect	-3527
专家	-3528
lia	-3529
три	-3530
ших	-3531
▁Хо	-3532
▁пи	-3533
特别是	-3534
ante	-3535
immer	-3536
istry	-3537
жения	-3538
ление	-3539
▁food	-3540
▁hard	-3541
▁note	-3542
▁Grund	-3543
▁Mitglied	-3544
▁material	-3545
governmental	-3546
8)	-3547
▁为	-3548
▁对	-3549
中心	-3550
参加	-3551
相关	-3552
omb	-3553
oor	-3554
▁Bec	-3555
▁лет	-3556
▁пар	-3557
▁спо	-3558
▁page	-3559
▁took	-3560
▁само	-3561
▁whole	-3562
▁whether	-3563
▁области	-3564
▁Protocol	-3565
▁specific	-3566
▁Республи	-3567
▁представи	-3568
▁Kommission	-3569
▁Palestinian	-3570
”.	-3571
基础	-3572
时间	-3573
能够	-3574
нию	-3575
ging	-3576
lick	-3577
▁nor	-3578
atory	-3579
utsch	-3580
▁able	-3581
▁diff	-3582
▁live	-3583
▁woll	-3584
▁alles	-3585
▁force	-3586
unities	-3587
▁Christ	-3588
▁impact	-3589
▁serious	-3590
▁partners	-3591
ED	-3592
框架	-3593
由于	-3594
目前	-3595
而且	-3596
ico	-3597
inn	-3598
ках	-3599
фер	-3600
циа	-3601
▁Sy	-3602
ably	-3603
atic	-3604
▁EUR	-3605
ocrat	-3606
преде	-3607
ствии	-3608
▁Aust	-3609
▁weiß	-3610
▁coming	-3611
▁systems	-3612
▁administ	-3613
▁государства	-3614
标准	-3615
bit	-3616
ден	-3617
▁El	-3618
▁Ми	-3619
▁ди	-3620
annt	-3621
ired	-3622
obil	-3623
▁Ira	-3624
▁Med	-3625
▁aut	-3626
izing	-3627
▁circ	-3628
▁orig	-3629
ческих	-3630
▁Working	-3631
▁results	-3632
▁February	-3633
▁communic	-3634
▁policies	-3635
▁delegation	-3636
▁consideration	-3637
办法	-3638
bra	-3639
dem	-3640
▁От	-3641
▁URL	-3642
imate	-3643
uchen	-3644
▁hold	-3645
▁less	-3646
▁norm	-3647
▁sent	-3648
ichtig	-3649
▁meine	-3650
▁introdu	-3651
▁proposed	-3652
▁importance	-3653
AD	-3654
ST	-3655
zu	-3656
▁一	-3657
特派	-3658
dom	-3659
▁Bl	-3660
方面的	-3661
ware	-3662
дова	-3663
нных	-3664
▁Sam	-3665
▁job	-3666
icult	-3667
▁Fund	-3668
▁Hand	-3669
▁Stat	-3670
▁past	-3671
▁sing	-3672
▁several	-3673
▁problems	-3674
2/	-3675
80	-3676
zt	-3677
ам	-3678
支助	-3679
/10	-3680
特派团	-3681
问题的	-3682
fort	-3683
iate	-3684
▁sum	-3685
▁гра	-3686
elbst	-3687
▁hist	-3688
▁mand	-3689
vement	-3690
▁Allah	-3691
▁gesch	-3692
▁terms	-3693
▁System	-3694
▁accept	-3695
▁gender	-3696
▁wurden	-3697
▁должны	-3698
▁anderen	-3699
▁actually	-3700
▁Community	-3701
73	-3702
рт	-3703
***	-3704
▁lo	-3705
ider	-3706
гово	-3707
рета	-3708
▁12.	-3709
▁Mus	-3710
▁tun	-3711
▁пос	-3712
шение	-3713
▁уров	-3714
▁Produ	-3715
▁assoc	-3716
▁sowie	-3717
▁determ	-3718
▁levels	-3719
▁company	-3720
▁meetings	-3721
▁signific	-3722
rimination	-3723
中的	-3724
arn	-3725
mar	-3726
ony	-3727
▁02	-3728
可持续	-3729
次会议	-3730
iver	-3731
rict	-3732
лаго	-3733
ссии	-3734
чить	-3735
▁Sal	-3736
▁blo	-3737
▁cal	-3738
▁book	-3739
▁году	-3740
▁защи	-3741
ension	-3742
▁later	-3743
▁rules	-3744
▁полити	-3745
ological	-3746
▁conflict	-3747
▁position	-3748
▁zwischen	-3749
▁Regulation	-3750
+1	-3751
55	-3752
ux	-3753
充分	-3754
вая	-3755
ahre	-3756
ruck	-3757
▁Lie	-3758
issen	-3759
▁Nein	-3760
▁anal	-3761
▁disp	-3762
▁prep	-3763
nments	-3764
tschaft	-3765
▁instru	-3766
ermanent	-3767
CT	-3768
fä	-3769
/17	-3770
rec	-3771
ugh	-3772
нан	-3773
▁br	-3774
ison	-3775
▁Acc	-3776
▁App	-3777
▁Bes	-3778
▁Des	-3779
▁esp	-3780
▁went	-3781
ograph	-3782
▁langu	-3783
▁Person	-3784
▁enough	-3785
▁prepar	-3786
▁territ	-3787
▁difficult	-3788
to	-3789
чь	-3790
▁请	-3791
任务	-3792
机制	-3793
资料	-3794
яза	-3795
2000	-3796
cing	-3797
uter	-3798
▁Bet	-3799
▁Wer	-3800
▁fav	-3801
thern	-3802
ulture	-3803
▁noted	-3804
▁стать	-3805
▁strong	-3806
▁zurück	-3807
▁настоя	-3808
▁propert	-3809
__	-3810
ят	-3811
安理	-3812
日第	-3813
ряд	-3814
▁Бе	-3815
hold	-3816
▁Che	-3817
▁Dar	-3818
▁Tur	-3819
▁UTC	-3820
▁ago	-3821
▁bad	-3822
▁наш	-3823
▁объ	-3824
▁сер	-3825
rated	-3826
▁line	-3827
▁Diese	-3828
itation	-3829
▁Israel	-3830
▁Report	-3831
▁indust	-3832
▁agreement	-3833
▁submitted	-3834
▁requirements	-3835
44	-3836
sk	-3837
▁!	-3838
滋病	-3839
hne	-3840
щее	-3841
工作组	-3842
艾滋病	-3843
-201	-3844
ched	-3845
zeug	-3846
▁dom	-3847
▁mom	-3848
▁пот	-3849
comes	-3850
geben	-3851
icles	-3852
▁Also	-3853
▁Iraq	-3854
▁Techn	-3855
▁large	-3856
enschen	-3857
▁Action	-3858
▁having	-3859
▁making	-3860
▁wanted	-3861
▁population	-3862
▁representative	-3863
减少	-3864
原则	-3865
尼亚	-3866
程序	-3867
бой	-3868
ети	-3869
▁tw	-3870
▁如果	-3871
fach	-3872
halb	-3873
iber	-3874
rast	-3875
бира	-3876
цией	-3877
ября	-3878
ising	-3879
щения	-3880
▁Some	-3881
▁doch	-3882
▁geht	-3883
selves	-3884
▁visit	-3885
▁young	-3886
liament	-3887
▁father	-3888
▁threat	-3889
▁violence	-3890
▁развития	-3891
▁application	-3892
26	-3893
IV	-3894
yl	-3895
制度	-3896
及其	-3897
适当	-3898
ety	-3899
ift	-3900
блю	-3901
вали	-3902
▁пол	-3903
▁Kind	-3904
▁guid	-3905
▁wish	-3906
ensive	-3907
ternet	-3908
▁2007,	-3909
▁Gover	-3910
▁enter	-3911
▁fight	-3912
▁society	-3913
▁standards	-3914
▁especially	-3915
tp	-3916
äß	-3917
一项	-3918
方式	-3919
进展	-3920
oto	-3921
raz	-3922
räs	-3923
▁Cl	-3924
▁ле	-3925
,000	-3926
лови	-3927
▁Bei	-3928
▁Col	-3929
▁Per	-3930
▁del	-3931
ature	-3932
▁Lord	-3933
▁Paris	-3934
▁costs	-3935
▁death	-3936
▁state	-3937
▁очень	-3938
▁nights	-3939
▁<	-3940
▁Ä	-3941
▁该	-3942
只是	-3943
在这	-3944
地方	-3945
歧视	-3946
自由	-3947
责任	-3948
aps	-3949
ull	-3950
▁EC	-3951
▁Ро	-3952
▁ба	-3953
burg	-3954
oice	-3955
rime	-3956
▁Mor	-3957
▁2011	-3958
▁seem	-3959
osition	-3960
▁France	-3961
▁mother	-3962
ulations	-3963
▁reflect	-3964
▁возможно	-3965
▁resolutions	-3966
In	-3967
ев	-3968
平等	-3969
建设	-3970
是否	-3971
调查	-3972
шен	-3973
▁Ke	-3974
▁ze	-3975
azaz	-3976
ends	-3977
hlen	-3978
imum	-3979
чего	-3980
▁Uhr	-3981
▁dev	-3982
▁гла	-3983
odies	-3984
кумен	-3985
шении	-3986
▁Form	-3987
▁прои	-3988
вление	-3989
ждения	-3990
▁short	-3991
▁space	-3992
▁обяза	-3993
▁attention	-3994
基本	-3995
wir	-3996
нес	-3997
▁9.	-3998
▁Da	-3999
▁Tr	-4000
▁这是	-4001
http	-4002
isen	-4003
wort	-4004
▁Imp	-4005
▁ger	-4006
▁tar	-4007
▁einz	-4008
▁ener	-4009
▁fine	-4010
▁знаю	-4011
▁реги	-4012
▁gegen	-4013
▁organ	-4014
▁cannot	-4015
▁responsibility	-4016
新的	-4017
范围	-4018
aby	-4019
new	-4020
ole	-4021
ßen	-4022
▁fr	-4023
▁sl	-4024
▁Ал	-4025
▁Ме	-4026
安理会	-4027
dern	-4028
▁Aff	-4029
▁Jul	-4030
▁test	-4031
▁напра	-4032
▁others	-4033
▁reason	-4034
▁trying	-4035
▁victim	-4036
▁towards	-4037
▁weapons	-4038
▁Menschen	-4039
▁received	-4040
29	-4041
31	-4042
фф	-4043
成为	-4044
key	-4045
val	-4046
▁Cor	-4047
▁Mod	-4048
▁всё	-4049
▁2013	-4050
▁conn	-4051
▁komm	-4052
▁fully	-4053
пециаль	-4054
▁forward	-4055
▁statement	-4056
Re	-4057
ta	-4058
uk	-4059
ай	-4060
зя	-4061
ья	-4062
阿拉	-4063
ese	-4064
hib	-4065
reh	-4066
uff	-4067
кая	-4068
чая	-4069
логи	-4070
▁Hol	-4071
▁wür	-4072
▁без	-4073
▁Gott	-4074
▁Vert	-4075
▁clos	-4076
▁sett	-4077
▁2005,	-4078
▁Jahre	-4079
▁Stand	-4080
▁annex	-4081
▁agreed	-4082
▁bodies	-4083
▁undert	-4084
▁образо	-4085
▁America	-4086
▁Service	-4087
▁looking	-4088
▁promote	-4089
▁Europäischen	-4090
提高	-4091
进程	-4092
oon	-4093
äft	-4094
пла	-4095
▁6.	-4096
▁7.	-4097
▁sy	-4098
торы	-4099
▁Our	-4100
▁Son	-4101
▁Sum	-4102
▁bef	-4103
▁key	-4104
▁rat	-4105
▁сем	-4106
▁King	-4107
▁Wind	-4108
▁risk	-4109
▁Seite	-4110
▁предо	-4111
ocratic	-4112
ческого	-4113
▁common	-4114
▁recent	-4115
▁versch	-4116
▁работа	-4117
▁Unterne	-4118
▁conduct	-4119
struction	-4120
▁research	-4121
▁Represent	-4122
▁Department	-4123
▁representatives	-4124
75	-4125
不会	-4126
equ	-4127
ops	-4128
вые	-4129
▁--	-4130
▁Sa	-4131
和其他	-4132
cent	-4133
gend	-4134
rand	-4135
serv	-4136
▁Pan	-4137
决议草案	-4138
ierte	-4139
▁denn	-4140
▁near	-4141
▁rule	-4142
▁Nächte	-4143
▁machen	-4144
▁server	-4145
▁context	-4146
▁действи	-4147
▁экономи	-4148
▁military	-4149
▁according	-4150
▁technology	-4151
▁Secretariat	-4152
▁participation	-4153
▁]	-4154
▁还	-4155
人口	-4156
同时	-4157
培训	-4158
家庭	-4159
巴勒	-4160
许多	-4161
说明	-4162
ery	-4163
los	-4164
äre	-4165
дом	-4166
рон	-4167
▁80	-4168
▁Gl	-4169
amen	-4170
uten	-4171
тере	-4172
▁ant	-4173
▁top	-4174
▁Мне	-4175
▁Они	-4176
▁зая	-4177
▁обо	-4178
巴勒斯坦	-4179
ators	-4180
▁2012	-4181
▁Mitt	-4182
▁fest	-4183
▁five	-4184
▁hell	-4185
▁mess	-4186
▁freed	-4187
▁waren	-4188
▁nichts	-4189
▁weiter	-4190
▁Declaration	-4191
▁significant	-4192
▁sustainable	-4193
38	-4194
70	-4195
9)	-4196
EG	-4197
oh	-4198
▁)	-4199
制定	-4200
行政	-4201
Add	-4202
acy	-4203
ama	-4204
ane	-4205
enz	-4206
gie	-4207
unt	-4208
год	-4209
▁2,	-4210
2004	-4211
amer	-4212
wand	-4213
тери	-4214
чему	-4215
▁kle	-4216
▁Все	-4217
ialog	-4218
itted	-4219
телей	-4220
▁verb	-4221
▁zwei	-4222
ilater	-4223
rative	-4224
▁damit	-4225
▁negot	-4226
▁встре	-4227
▁andere	-4228
▁ground	-4229
▁approach	-4230
▁continued	-4231
▁relations	-4232
PA	-4233
人道	-4234
伙伴	-4235
承诺	-4236
机会	-4237
欢迎	-4238
消除	-4239
ubl	-4240
uty	-4241
vor	-4242
▁TH	-4243
bere	-4244
ches	-4245
ellt	-4246
ican	-4247
roll	-4248
вест	-4249
води	-4250
ский	-4251
▁Geb	-4252
▁tas	-4253
▁upd	-4254
▁уби	-4255
iated	-4256
▁Port	-4257
▁city	-4258
▁date	-4259
ipment	-4260
▁Jahren	-4261
▁который	-4262
▁included	-4263
▁соответству	-4264
CC	-4265
▁Ю	-4266
他的	-4267
应当	-4268
лом	-4269
рио	-4270
gent	-4271
ying	-4272
▁Did	-4273
▁bal	-4274
ектив	-4275
▁Stud	-4276
▁Пред	-4277
▁част	-4278
▁relig	-4279
lements	-4280
▁status	-4281
▁however	-4282
▁безопасности	-4283
va	-4284
öl	-4285
▁此	-4286
会员	-4287
具体	-4288
▁sw	-4289
apan	-4290
ense	-4291
phas	-4292
▁Aut	-4293
▁Vol	-4294
gency	-4295
комен	-4296
▁once	-4297
▁town	-4298
▁writ	-4299
▁нача	-4300
▁2006,	-4301
▁подго	-4302
▁target	-4303
▁complet	-4304
▁talking	-4305
▁terrorism	-4306
▁production	-4307
▁particularly	-4308
UR	-4309
pe	-4310
wä	-4311
цы	-4312
存在	-4313
附件	-4314
рта	-4315
слу	-4316
тро	-4317
час	-4318
▁35	-4319
iday	-4320
▁abs	-4321
▁ess	-4322
▁six	-4323
▁каж	-4324
gesch	-4325
▁Bere	-4326
▁dead	-4327
▁хочу	-4328
overty	-4329
▁energy	-4330
▁decided	-4331
▁outside	-4332
▁quality	-4333
▁strateg	-4334
DP	-4335
bo	-4336
办事	-4337
处理	-4338
议定	-4339
/07	-4340
oph	-4341
ump	-4342
йти	-4343
▁Em	-4344
▁gl	-4345
▁ir	-4346
▁pa	-4347
ateg	-4348
cont	-4349
▁Pat	-4350
▁age	-4351
▁mag	-4352
▁联合国	-4353
恐怖主义	-4354
▁From	-4355
▁ganz	-4356
▁guys	-4357
▁move	-4358
ровать	-4359
▁Besch	-4360
▁plann	-4361
▁method	-4362
▁office	-4363
▁Совета	-4364
armament	-4365
▁Because	-4366
▁facilit	-4367
▁monitor	-4368
▁докумен	-4369
▁independ	-4370
▁humanitarian	-4371
.”	-4372
63	-4373
▁Ц	-4374
》,	-4375
咨询	-4376
设立	-4377
вро	-4378
нее	-4379
▁ve	-4380
ises	-4381
reib	-4382
ured	-4383
▁gel	-4384
▁ill	-4385
▁pot	-4386
arten	-4387
ейчас	-4388
▁hope	-4389
▁para	-4390
▁seen	-4391
▁орга	-4392
▁этот	-4393
rought	-4394
▁Every	-4395
▁Frank	-4396
▁Treat	-4397
▁speak	-4398
▁table	-4399
▁дости	-4400
▁связи	-4401
▁сесси	-4402
▁analys	-4403
▁investig	-4404
▁property	-4405
▁remember	-4406
▁необходимо	-4407
ma	-4408
全面	-4409
成果	-4410
接受	-4411
gem	-4412
oke	-4413
▁ey	-4414
ador	-4415
iful	-4416
oses	-4417
лиза	-4418
стер	-4419
▁Exp	-4420
▁bit	-4421
eping	-4422
inter	-4423
ransp	-4424
zeich	-4425
▁cris	-4426
▁share	-4427
▁third	-4428
▁using	-4429
▁ответ	-4430
▁reform	-4431
building	-4432
▁рассмот	-4433
▁building	-4434
▁contract	-4435
▁function	-4436
协定	-4437
司法	-4438
最后	-4439
第一	-4440
起来	-4441
▁Nr	-4442
▁Па	-4443
▁чу	-4444
会员国	-4445
阿拉伯	-4446
2002	-4447
lete	-4448
room	-4449
льно	-4450
▁ihm	-4451
▁там	-4452
ander	-4453
ферен	-4454
▁Best	-4455
▁день	-4456
▁пока	-4457
▁After	-4458
▁early	-4459
▁police	-4460
▁провед	-4461
▁продол	-4462
ilateral	-4463
▁getting	-4464
▁проблем	-4465
▁правитель	-4466
▁experience	-4467
8/	-4468
按照	-4469
hst	-4470
via	-4471
вай	-4472
леф	-4473
▁Из	-4474
办事处	-4475
ians	-4476
iche	-4477
rupp	-4478
▁Cap	-4479
▁tru	-4480
▁уси	-4481
acter	-4482
ремен	-4483
▁Cong	-4484
▁Will	-4485
▁else	-4486
▁file	-4487
▁side	-4488
ischer	-4489
▁Stadt	-4490
▁doesn	-4491
▁pursu	-4492
iations	-4493
stitute	-4494
▁должен	-4495
▁fucking	-4496
▁transfer	-4497
▁increasing	-4498
到了	-4499
宣言	-4500
评估	-4501
难民	-4502
pre	-4503
гов	-4504
▁3,	-4505
缔约方	-4506
ones	-4507
rang	-4508
▁Wel	-4509
▁где	-4510
стано	-4511
ством	-4512
▁West	-4513
▁caus	-4514
▁crit	-4515
▁face	-4516
alling	-4517
orteur	-4518
▁2009,	-4519
▁close	-4520
▁press	-4521
▁перио	-4522
▁стран	-4523
▁финан	-4524
▁опреде	-4525
▁призна	-4526
▁transport	-4527
▁operations	-4528
.5	-4529
个人	-4530
以色	-4531
用于	-4532
规则	-4533
hol	-4534
лич	-4535
щих	-4536
▁#1	-4537
▁ав	-4538
以色列	-4539
的国际	-4540
onse	-4541
ложи	-4542
стей	-4543
твер	-4544
▁Ang	-4545
▁нам	-4546
ental	-4547
ников	-4548
▁emer	-4549
▁soon	-4550
▁упра	-4551
encies	-4552
icking	-4553
▁besch	-4554
▁hatte	-4555
entlich	-4556
isation	-4557
▁growth	-4558
▁relating	-4559
▁националь	-4560
3/	-4561
义务	-4562
正式	-4563
费用	-4564
高级	-4565
ilm	-4566
äuf	-4567
▁Of	-4568
▁关于	-4569
议定书	-4570
enen	-4571
ucht	-4572
▁000	-4573
▁над	-4574
工作人员	-4575
asser	-4576
osten	-4577
▁2014	-4578
▁Mann	-4579
▁self	-4580
visory	-4581
▁Leben	-4582
▁Peace	-4583
▁class	-4584
▁killed	-4585
▁actions	-4586
并且	-4587
拉克	-4588
数据	-4589
日至	-4590
资金	-4591
非常	-4592
вал	-4593
ван	-4594
▁ja	-4595
▁чи	-4596
▁因此	-4597
非政府	-4598
▁San	-4599
▁ans	-4600
▁hig	-4601
▁них	-4602
▁Home	-4603
▁guar	-4604
▁член	-4605
▁entit	-4606
▁value	-4607
▁много	-4608
▁совер	-4609
▁Proble	-4610
▁English	-4611
▁improve	-4612
▁previous	-4613
▁increased	-4614
▁obligations	-4615
1/	-4616
AC	-4617
OP	-4618
сс	-4619
公司	-4620
amb	-4621
рая	-4622
той	-4623
▁mm	-4624
▁Ас	-4625
eten	-4626
immt	-4627
вить	-4628
мени	-4629
▁(2)	-4630
▁arr	-4631
▁flo	-4632
▁эфф	-4633
ledge	-4634
▁Schw	-4635
▁Japan	-4636
▁heard	-4637
▁except	-4638
▁export	-4639
▁Affairs	-4640
▁einfach	-4641
▁network	-4642
▁Комитет	-4643
▁organization	-4644
生活	-4645
领土	-4646
鼓励	-4647
amt	-4648
ino	-4649
рия	-4650
▁La	-4651
▁但是	-4652
amar	-4653
▁rad	-4654
aring	-4655
estic	-4656
▁More	-4657
▁bist	-4658
▁vote	-4659
▁Gemein	-4660
▁работы	-4661
▁Mission	-4662
▁рекомен	-4663
ederation	-4664
▁agencies	-4665
▁yourself	-4666
▁expressed	-4667
▁Verordnung	-4668
39	-4669
Wh	-4670
хи	-4671
gal	-4672
idd	-4673
ton	-4674
▁di	-4675
aint	-4676
bens	-4677
piel	-4678
zahl	-4679
zent	-4680
перь	-4681
стру	-4682
▁(0)	-4683
▁Fam	-4684
▁Für	-4685
▁Som	-4686
▁bar	-4687
▁due	-4688
▁nie	-4689
▁tre	-4690
▁Вот	-4691
▁тор	-4692
▁фор	-4693
▁East	-4694
▁Welt	-4695
▁York	-4696
▁расс	-4697
change	-4698
▁exerc	-4699
▁attack	-4700
▁living	-4701
▁selbst	-4702
▁больше	-4703
▁contain	-4704
▁секрета	-4705
▁happened	-4706
▁отношении	-4707
äd	-4708
上的	-4709
产生	-4710
时候	-4711
维持	-4712
认识	-4713
:01	-4714
:15	-4715
:30	-4716
joy	-4717
ley	-4718
son	-4719
▁fa	-4720
2006	-4721
aged	-4722
ager	-4723
lean	-4724
more	-4725
тели	-4726
▁Gew	-4727
▁deb	-4728
国际社会	-4729
bsite	-4730
lagen	-4731
weise	-4732
▁себя	-4733
зульта	-4734
▁Other	-4735
▁heart	-4736
▁often	-4737
▁выпол	-4738
ecutive	-4739
▁single	-4740
▁женщин	-4741
essional	-4742
▁poverty	-4743
▁practice	-4744
▁provides	-4745
▁concerning	-4746
)、	-4747
34	-4748
严重	-4749
尤其	-4750
帮助	-4751
条件	-4752
来的	-4753
aum	-4754
unk	-4755
ких	-4756
2003	-4757
2005	-4758
unkt	-4759
писа	-4760
ская	-4761
чита	-4762
▁Bre	-4763
▁Wed	-4764
▁mer	-4765
▁saw	-4766
▁sug	-4767
orrow	-4768
otels	-4769
ständ	-4770
▁Mill	-4771
▁Plan	-4772
▁cred	-4773
▁safe	-4774
nahmen	-4775
▁First	-4776
▁along	-4777
▁apply	-4778
▁beaut	-4779
▁joint	-4780
▁sehen	-4781
▁reserv	-4782
▁appoint	-4783
▁carried	-4784
▁contact	-4785
▁Ministry	-4786
▁existing	-4787
▁Mitgliedsta	-4788
▁Representative	-4789
56	-4790
66	-4791
dy	-4792
рь	-4793
协助	-4794
告诉	-4795
开发	-4796
投资	-4797
暴力	-4798
民主	-4799
那些	-4800
bes	-4801
ius	-4802
lam	-4803
гли	-4804
▁55	-4805
▁Ob	-4806
▁Ur	-4807
ands	-4808
dict	-4809
самб	-4810
▁196	-4811
▁Dan	-4812
▁opt	-4813
▁ему	-4814
▁сов	-4815
▁Cons	-4816
▁desc	-4817
▁sche	-4818
fahren	-4819
istics	-4820
▁alone	-4821
▁woman	-4822
▁благо	-4823
▁соста	-4824
▁Global	-4825
▁должно	-4826
▁morning	-4827
rehensive	-4828
▁Parliament	-4829
▁деятельности	-4830
??	-4831
EF	-4832
ny	-4833
▁《	-4834
独立	-4835
银行	-4836
вый	-4837
▁ак	-4838
▁га	-4839
arch	-4840
asch	-4841
rank	-4842
▁End	-4843
▁Kar	-4844
▁ber	-4845
▁guy	-4846
▁inn	-4847
rench	-4848
▁Brit	-4849
▁euch	-4850
▁Алла	-4851
▁деле	-4852
schied	-4853
▁break	-4854
▁broad	-4855
▁eigen	-4856
▁sollte	-4857
▁заседа	-4858
stellung	-4859
▁section	-4860
▁Chairman	-4861
▁результа	-4862
▁equipment	-4863
▁questions	-4864
▁соответствии	-4865
.)	-4866
4/	-4867
EM	-4868
▁当	-4869
改革	-4870
方法	-4871
▁Uh	-4872
伊拉克	-4873
half	-4874
мина	-4875
▁Ben	-4876
▁Dad	-4877
▁Net	-4878
▁gef	-4879
▁sir	-4880
▁swe	-4881
▁ско	-4882
нения	-4883
рован	-4884
▁этих	-4885
▁Polit	-4886
▁occup	-4887
▁будут	-4888
▁apprec	-4889
▁процес	-4890
тельства	-4891
▁entitled	-4892
▁provision	-4893
88	-4894
AM	-4895
ha	-4896
ij	-4897
一样	-4898
事项	-4899
第三	-4900
ray	-4901
ено	-4902
кан	-4903
рав	-4904
▁我不	-4905
2001	-4906
most	-4907
zial	-4908
▁Lat	-4909
▁лиц	-4910
eting	-4911
▁Hell	-4912
▁debt	-4913
▁gest	-4914
▁opin	-4915
▁team	-4916
非政府组织	-4917
▁funds	-4918
▁views	-4919
▁можно	-4920
▁позво	-4921
▁преду	-4922
▁crisis	-4923
▁Ассамб	-4924
räsident	-4925
▁mission	-4926
▁reported	-4927
▁эффектив	-4928
▁documents	-4929
▁essential	-4930
▁practices	-4931
EP	-4932
他們	-4933
文化	-4934
更多	-4935
造成	-4936
部队	-4937
▁je	-4938
aupt	-4939
ilar	-4940
ills	-4941
mark	-4942
ußer	-4943
▁aid	-4944
▁hol	-4945
人道主义	-4946
nisse	-4947
рения	-4948
▁1999	-4949
▁Rapp	-4950
▁rate	-4951
▁rein	-4952
arbeit	-4953
▁grant	-4954
▁hours	-4955
▁separ	-4956
▁сторо	-4957
loyment	-4958
▁detail	-4959
▁brought	-4960
▁friends	-4961
▁mention	-4962
▁reporting	-4963
cl	-4964
地位	-4965
如何	-4966
äng	-4967
▁Op	-4968
ehen	-4969
kehr	-4970
onom	-4971
ourn	-4972
▁Mex	-4973
▁hon	-4974
▁mot	-4975
▁tax	-4976
▁дня	-4977
▁луч	-4978
▁смо	-4979
erein	-4980
▁Kont	-4981
▁Schl	-4982
▁fail	-4983
▁thus	-4984
action	-4985
cement	-4986
▁Party	-4987
▁below	-4988
▁immed	-4989
▁sound	-4990
▁откры	-4991
▁behalf	-4992
▁either	-4993
▁nature	-4994
▁though	-4995
▁других	-4996
▁leaders	-4997
▁response	-4998
▁decisions	-4999
▁establishment	-5000
SC	-5001
öß	-5002
之前	-5003
变化	-5004
谈判	-5005
emp	-5006
вно	-5007
нут	-5008
▁ию	-5009
asse	-5010
ding	-5011
lage	-5012
пера	-5013
рави	-5014
▁Dis	-5015
▁Ger	-5016
▁fif	-5017
chten	-5018
onnel	-5019
ragen	-5020
where	-5021
▁eval	-5022
▁road	-5023
▁stre	-5024
▁голо	-5025
▁Richt	-5026
▁check	-5027
amental	-5028
ocation	-5029
▁Arbeit	-5030
▁sicher	-5031
▁сказал	-5032
▁услови	-5033
▁Entwick	-5034
▁victims	-5035
▁guarante	-5036
▁procedure	-5037
▁treatment	-5038
▁investment	-5039
76	-5040
一致	-5041
记录	-5042
hab	-5043
hör	-5044
ots	-5045
нер	-5046
ites	-5047
ival	-5048
vest	-5049
шего	-5050
▁Any	-5051
▁Ser	-5052
▁dou	-5053
▁max	-5054
▁Пре	-5055
inate	-5056
nahme	-5057
▁Eine	-5058
▁Teil	-5059
▁fair	-5060
▁fire	-5061
▁walk	-5062
▁каса	-5063
▁каче	-5064
▁обще	-5065
▁тран	-5066
▁Women	-5067
▁denen	-5068
▁final	-5069
▁custom	-5070
▁поддерж	-5071
▁substant	-5072
▁предоста	-5073
▁commitment	-5074
▁coordination	-5075
▁就	-5076
一种	-5077
做法	-5078
协商	-5079
各种	-5080
负责	-5081
agt	-5082
kra	-5083
zie	-5084
дел	-5085
ман	-5086
▁Ва	-5087
▁Са	-5088
jekt	-5089
just	-5090
▁Bro	-5091
▁Ham	-5092
▁бор	-5093
▁кра	-5094
▁рам	-5095
abour	-5096
ached	-5097
anner	-5098
inden	-5099
▁Date	-5100
▁Take	-5101
▁drei	-5102
вается	-5103
▁Child	-5104
▁effic	-5105
рования	-5106
▁seiner	-5107
▁unsere	-5108
▁Конвен	-5109
▁которо	-5110
▁Deutsch	-5111
▁conclud	-5112
▁Federation	-5113
▁institution	-5114
LL	-5115
OT	-5116
US	-5117
им	-5118
щё	-5119
财政	-5120
IDS	-5121
ker	-5122
кто	-5123
сем	-5124
ять	-5125
ienn	-5126
imal	-5127
меча	-5128
▁Sol	-5129
▁saf	-5130
▁сло	-5131
▁уве	-5132
ichte	-5133
änder	-5134
▁Ener	-5135
▁ange	-5136
▁idea	-5137
可持续发展	-5138
though	-5139
▁heute	-5140
▁sagen	-5141
ialogue	-5142
issions	-5143
stances	-5144
fficking	-5145
▁Kingdom	-5146
▁collect	-5147
▁evidence	-5148
▁standard	-5149
▁Rapporteur	-5150
▁сотрудниче	-5151
▁Governments	-5152
▁legislation	-5153
%,	-5154
?"	-5155
ii	-5156
ит	-5157
不同	-5158
中国	-5159
今天	-5160
卫生	-5161
履行	-5162
市场	-5163
批准	-5164
挑战	-5165
都是	-5166
ION	-5167
opp	-5168
ria	-5169
вра	-5170
ены	-5171
юсь	-5172
▁Hö	-5173
▁Sk	-5174
▁уч	-5175
▁根据	-5176
▁此外	-5177
1999	-5178
back	-5179
itiz	-5180
reen	-5181
нить	-5182
реди	-5183
част	-5184
▁Den	-5185
▁sou	-5186
▁Have	-5187
▁Hier	-5188
▁Mont	-5189
▁dire	-5190
▁harm	-5191
▁carry	-5192
▁estim	-5193
▁своей	-5194
▁French	-5195
▁diesen	-5196
▁gleich	-5197
▁travel	-5198
▁justice	-5199
▁разрабо	-5200
▁подготов	-5201
▁character	-5202
":	-5203
0,	-5204
2-	-5205
шу	-5206
▁所	-5207
真的	-5208
预防	-5209
bel	-5210
weg	-5211
лях	-5212
▁Дж	-5213
ique	-5214
oren	-5215
rian	-5216
rief	-5217
▁III	-5218
▁ben	-5219
▁ble	-5220
▁cut	-5221
▁tem	-5222
esser	-5223
держа	-5224
матри	-5225
▁Agre	-5226
ftware	-5227
istent	-5228
lusion	-5229
ulated	-5230
ährend	-5231
▁Phone	-5232
▁famil	-5233
iveness	-5234
▁points	-5235
fficient	-5236
ствовать	-5237
▁Further	-5238
▁proceed	-5239
▁regular	-5240
▁которая	-5241
▁Administ	-5242
▁requests	-5243
▁addressed	-5244
▁regarding	-5245
▁государств	-5246
-3	-5247
CR	-5248
种族	-5249
罗斯	-5250
选举	-5251
ahn	-5252
дем	-5253
▁Ms	-5254
▁uh	-5255
▁Де	-5256
▁Ла	-5257
▁ад	-5258
(200	-5259
ließ	-5260
spre	-5261
▁300	-5262
▁Tel	-5263
▁boy	-5264
anced	-5265
▁Gree	-5266
▁Head	-5267
▁bank	-5268
▁game	-5269
▁seit	-5270
keiten	-5271
▁Great	-5272
▁Nicht	-5273
▁beste	-5274
▁bienn	-5275
▁drink	-5276
▁price	-5277
igenous	-5278
▁Treaty	-5279
▁aspect	-5280
▁observ	-5281
▁послед	-5282
▁achieve	-5283
▁foreign	-5284
▁someone	-5285
▁criminal	-5286
▁prepared	-5287
▁proposal	-5288
▁zusammen	-5289
▁вопросам	-5290
▁contained	-5291
▁providing	-5292
▁резолюции	-5293
▁procedures	-5294
.:	-5295
/-	-5296
48	-5297
yn	-5298
osp	-5299
umb	-5300
urt	-5301
шей	-5302
ший	-5303
举行的	-5304
国家的	-5305
gang	-5306
hält	-5307
ouch	-5308
ründ	-5309
▁Sta	-5310
▁ton	-5311
aving	-5312
годня	-5313
лефон	-5314
▁gone	-5315
▁late	-5316
▁ohne	-5317
▁verl	-5318
scheid	-5319
▁Annex	-5320
▁enjoy	-5321
▁ihren	-5322
▁study	-5323
▁измен	-5324
▁сегодня	-5325
▁Director	-5326
▁tradition	-5327
▁University	-5328
▁challenges	-5329
▁participate	-5330
57	-5331
印度	-5332
受到	-5333
只有	-5334
大的	-5335
最近	-5336
真主	-5337
联邦	-5338
iff	-5339
вил	-5340
кую	-5341
рак	-5342
▁ID	-5343
▁hö	-5344
▁这些	-5345
part	-5346
ющий	-5347
▁Gen	-5348
▁Rat	-5349
istic	-5350
ступа	-5351
▁John	-5352
▁arms	-5353
▁dein	-5354
▁true	-5355
▁свою	-5356
atever	-5357
coming	-5358
itness	-5359
ваться	-5360
▁Recht	-5361
▁whose	-5362
▁нужно	-5363
▁основ	-5364
▁гражда	-5365
▁участи	-5366
▁Central	-5367
▁created	-5368
▁workers	-5369
▁которых	-5370
▁Internet	-5371
▁beautiful	-5372
▁successful	-5373
▁discrimination	-5374
WG	-5375
ya	-5376
ША	-5377
ге	-5378
▁ж	-5379
▁然	-5380
两年	-5381
成功	-5382
比亚	-5383
金融	-5384
非法	-5385
agn	-5386
aug	-5387
put	-5388
rig	-5389
ums	-5390
лли	-5391
的权利	-5392
esen	-5393
ille	-5394
pers	-5395
term	-5396
нами	-5397
ющим	-5398
▁Com	-5399
▁Mad	-5400
▁isn	-5401
▁kon	-5402
▁пло	-5403
ables	-5404
aften	-5405
ients	-5406
ufact	-5407
жение	-5408
▁Supp	-5409
▁Verb	-5410
▁appe	-5411
▁doll	-5412
▁wife	-5413
▁yeah	-5414
нитель	-5415
▁Since	-5416
▁aller	-5417
▁amend	-5418
▁armed	-5419
▁hands	-5420
▁ihrer	-5421
▁words	-5422
wendung	-5423
▁Canada	-5424
▁German	-5425
▁compan	-5426
▁emphas	-5427
▁former	-5428
▁natural	-5429
▁principles	-5430
▁comprehensive	-5431
89	-5432
IR	-5433
一起	-5434
之后	-5435
具有	-5436
准备	-5437
重申	-5438
arb	-5439
ira	-5440
uld	-5441
фри	-5442
шие	-5443
▁ла	-5444
▁11.	-5445
▁Ist	-5446
▁fig	-5447
▁nam	-5448
▁pap	-5449
▁вла	-5450
atter	-5451
iddle	-5452
legen	-5453
sicht	-5454
stoff	-5455
▁Euro	-5456
▁gave	-5457
▁port	-5458
▁wasn	-5459
▁Коми	-5460
▁gehen	-5461
▁known	-5462
▁ready	-5463
▁arrang	-5464
▁saying	-5465
▁transp	-5466
▁показа	-5467
▁хорошо	-5468
▁respond	-5469
▁suggest	-5470
▁themselves	-5471
▁fundamental	-5472
▁responsible	-5473
▁secretariat	-5474
41	-5475
OS	-5476
ox	-5477
».	-5478
法庭	-5479
监测	-5480
第五	-5481
结果	-5482
表明	-5483
设施	-5484
部长	-5485
zug	-5486
змо	-5487
▁36	-5488
俄罗斯	-5489
ghan	-5490
oche	-5491
ogen	-5492
▁Red	-5493
▁Web	-5494
▁san	-5495
achen	-5496
illas	-5497
▁Bild	-5498
▁Ital	-5499
▁Mark	-5500
▁Park	-5501
▁Prof	-5502
▁Ukra	-5503
▁host	-5504
▁prob	-5505
▁Евро	-5506
öglich	-5507
ческие	-5508
ющихся	-5509
▁Maybe	-5510
▁While	-5511
▁asked	-5512
▁помощ	-5513
keeping	-5514
▁möchte	-5515
▁needed	-5516
▁treaty	-5517
▁wonder	-5518
▁сессии	-5519
▁Windows	-5520
▁mandate	-5521
▁образом	-5522
▁directly	-5523
▁positive	-5524
▁использо	-5525
▁knowledge	-5526
▁objectives	-5527
▁opportunity	-5528
▁Commissioner	-5529
▁consultations	-5530
oz	-5531
▁它	-5532
两个	-5533
孩子	-5534
武装	-5535
涉及	-5536
积极	-5537
/08	-5538
ald	-5539
rid	-5540
uba	-5541
кий	-5542
нет	-5543
унк	-5544
▁8.	-5545
comm	-5546
▁Add	-5547
▁etc	-5548
▁hät	-5549
▁sle	-5550
▁тру	-5551
▁эта	-5552
anger	-5553
ielle	-5554
igned	-5555
klich	-5556
вести	-5557
▁Rest	-5558
▁appl	-5559
▁camp	-5560
▁perm	-5561
▁tool	-5562
▁подо	-5563
ancing	-5564
elines	-5565
ournal	-5566
действи	-5567
▁Freund	-5568
▁create	-5569
▁ersten	-5570
▁finden	-5571
▁longer	-5572
▁против	-5573
▁capital	-5574
▁effects	-5575
▁univers	-5576
▁potential	-5577
▁mechanisms	-5578
▁disarmament	-5579
37	-5580
ET	-5581
关注	-5582
国内	-5583
性别	-5584
性的	-5585
的事	-5586
知识	-5587
une	-5588
之间的	-5589
enty	-5590
lock	-5591
onst	-5592
ored	-5593
енно	-5594
▁lik	-5595
▁sal	-5596
▁США	-5597
▁мой	-5598
▁ска	-5599
▁чет	-5600
ester	-5601
▁fulf	-5602
▁half	-5603
▁prim	-5604
▁него	-5605
▁хоте	-5606
зывает	-5607
▁Durch	-5608
▁Prote	-5609
▁girls	-5610
▁neuen	-5611
▁quite	-5612
▁watch	-5613
▁оказа	-5614
▁рамках	-5615
▁сейчас	-5616
▁changes	-5617
▁purpose	-5618
▁adoption	-5619
▁involved	-5620
▁Ассамбле	-5621
▁authority	-5622
▁statements	-5623
▁Unternehmen	-5624
95	-5625
ka	-5626
ua	-5627
”。	-5628
东西	-5629
仍然	-5630
优先	-5631
公共	-5632
对于	-5633
稳定	-5634
空间	-5635
防止	-5636
首脑	-5637
.10	-5638
cle	-5639
fte	-5640
rel	-5641
ush	-5642
▁90	-5643
▁Ре	-5644
iary	-5645
lace	-5646
olit	-5647
play	-5648
ruit	-5649
паси	-5650
ские	-5651
▁Sat	-5652
▁Tod	-5653
▁hor	-5654
▁pun	-5655
▁уче	-5656
/2016	-5657
▁Span	-5658
▁infl	-5659
▁lost	-5660
▁neue	-5661
▁pict	-5662
▁один	-5663
ierten	-5664
itable	-5665
сульта	-5666
▁Right	-5667
▁Spiel	-5668
▁clean	-5669
▁happy	-5670
▁reach	-5671
▁steps	-5672
▁могут	-5673
▁целях	-5674
▁Accord	-5675
▁entire	-5676
▁rather	-5677
▁примен	-5678
▁matters	-5679
▁Zusammen	-5680
▁analysis	-5681
▁referred	-5682
▁Agreement	-5683
▁monitoring	-5684
▁обеспечения	-5685
▁administrative	-5686
36	-5687
87	-5688
цу	-5689
办公	-5690
实际	-5691
结束	-5692
领导	-5693
eck	-5694
ipe	-5695
ney	-5696
нем	-5697
▁32	-5698
▁li	-5699
会议的	-5700
有关的	-5701
cher	-5702
ency	-5703
erve	-5704
ires	-5705
wert	-5706
wise	-5707
ющей	-5708
▁cop	-5709
▁дву	-5710
▁экс	-5711
inner	-5712
unter	-5713
когда	-5714
щение	-5715
▁coll	-5716
▁gehö	-5717
▁nice	-5718
▁насе	-5719
▁2004,	-5720
▁Count	-5721
▁adequ	-5722
▁calls	-5723
▁comes	-5724
▁gotta	-5725
▁learn	-5726
▁posts	-5727
mission	-5728
▁During	-5729
▁expect	-5730
▁issued	-5731
▁itself	-5732
▁install	-5733
▁принима	-5734
▁системы	-5735
▁dialogue	-5736
▁domestic	-5737
▁environmental	-5738
▁Mitgliedstaaten	-5739
-5	-5740
4-	-5741
щу	-5742
▁Ж	-5743
以来	-5744
或者	-5745
控制	-5746
目的	-5747
社区	-5748
bed	-5749
rem	-5750
ume	-5751
кие	-5752
ход	-5753
▁Je	-5754
▁Pa	-5755
▁Ку	-5756
▁её	-5757
的规定	-5758
fect	-5759
стой	-5760
▁Bas	-5761
▁Jes	-5762
▁Maß	-5763
▁bek	-5764
▁tro	-5765
▁wen	-5766
▁нем	-5767
aches	-5768
ersch	-5769
струк	-5770
▁Asia	-5771
▁erst	-5772
▁laws	-5773
▁says	-5774
▁schw	-5775
▁weit	-5776
▁этим	-5777
▁basic	-5778
▁range	-5779
▁связа	-5780
iatives	-5781
▁behind	-5782
▁circum	-5783
▁modern	-5784
▁safety	-5785
▁supply	-5786
▁случае	-5787
▁located	-5788
▁opinion	-5789
▁Advisory	-5790
▁exchange	-5791
▁exercise	-5792
▁personal	-5793
▁strategy	-5794
▁facilities	-5795
ём	-5796
▁ю	-5797
专员	-5798
了一	-5799
制订	-5800
受害	-5801
在其	-5802
安排	-5803
打击	-5804
立法	-5805
ape	-5806
duc	-5807
füg	-5808
isf	-5809
tty	-5810
ерт	-5811
мой	-5812
тие	-5813
тий	-5814
юда	-5815
▁Hi	-5816
▁вз	-5817
atal	-5818
hips	-5819
otos	-5820
quar	-5821
stüt	-5822
жать	-5823
▁aud	-5824
▁cou	-5825
вляет	-5826
крати	-5827
рение	-5828
▁Disc	-5829
▁Wait	-5830
▁suff	-5831
▁суще	-5832
ederal	-5833
▁glaub	-5834
▁makes	-5835
▁Когда	-5836
▁Afghan	-5837
▁annual	-5838
▁матери	-5839
▁период	-5840
▁achieved	-5841
▁biennium	-5842
▁strengthening	-5843
,"	-5844
="	-5845
Un	-5846
ню	-5847
ов	-5848
▁没	-5849
军事	-5850
女士	-5851
是在	-5852
论坛	-5853
ING	-5854
bau	-5855
gew	-5856
▁Ed	-5857
报告员	-5858
ania	-5859
будь	-5860
вают	-5861
дина	-5862
нием	-5863
прия	-5864
роме	-5865
став	-5866
▁HIV	-5867
▁THE	-5868
▁los	-5869
▁sea	-5870
▁ним	-5871
actly	-5872
oples	-5873
▁Frau	-5874
▁door	-5875
▁drug	-5876
▁pack	-5877
▁poor	-5878
▁prec	-5879
▁weil	-5880
▁борь	-5881
▁учре	-5882
которы	-5883
▁2010,	-5884
▁Forum	-5885
▁Sorry	-5886
▁citiz	-5887
▁Europa	-5888
▁People	-5889
▁Summit	-5890
▁cooper	-5891
▁extens	-5892
▁kommen	-5893
▁sexual	-5894
▁brother	-5895
▁distrib	-5896
▁freedom	-5897
operation	-5898
▁complete	-5899
▁thinking	-5900
▁Präsident	-5901
▁committed	-5902
▁personnel	-5903
!!	-5904
6/	-5905
以下	-5906
收入	-5907
/12	-5908
сур	-5909
хра	-5910
▁jo	-5911
▁Ин	-5912
组织的	-5913
band	-5914
face	-5915
fast	-5916
irth	-5917
kauf	-5918
lack	-5919
unft	-5920
····	-5921
емых	-5922
личи	-5923
ники	-5924
ходя	-5925
▁(19	-5926
▁Mac	-5927
▁dra	-5928
▁fix	-5929
▁tom	-5930
▁vot	-5931
uropä	-5932
▁exam	-5933
▁wäre	-5934
ondere	-5935
говори	-5936
пасибо	-5937
▁Thurs	-5938
▁Trade	-5939
▁cross	-5940
▁floor	-5941
▁всего	-5942
ivision	-5943
▁Berlin	-5944
▁Sicher	-5945
▁интере	-5946
▁encoura	-5947
▁experts	-5948
▁infrast	-5949
▁sondern	-5950
▁tonight	-5951
▁комитет	-5952
▁cultural	-5953
▁maintain	-5954
▁Permanent	-5955
▁Management	-5956
▁conference	-5957
▁employment	-5958
▁strengthen	-5959
▁initiatives	-5960
▁Informationen	-5961
43	-5962
85	-5963
AP	-5964
Ch	-5965
Th	-5966
üd	-5967
тя	-5968
一直	-5969
准则	-5970
国的	-5971
过去	-5972
限制	-5973
.11	-5974
:11	-5975
ixt	-5976
yle	-5977
имо	-5978
ору	-5979
▁Ар	-5980
办公室	-5981
我们的	-5982
通过的	-5983
2007	-5984
esse	-5985
head	-5986
know	-5987
umer	-5988
vert	-5989
жешь	-5990
▁Air	-5991
▁Kön	-5992
▁mig	-5993
▁oil	-5994
▁ren	-5995
▁sus	-5996
▁www	-5997
apter	-5998
based	-5999
spect	-6000
вание	-6001
ститу	-6002
▁Arbe	-6003
▁Belg	-6004
▁Qual	-6005
▁Requ	-6006
▁fast	-6007
▁knew	-6008
▁spre	-6009
▁tele	-6010
▁voll	-6011
▁исто	-6012
iative	-6013
▁truth	-6014
▁людей	-6015
▁поряд	-6016
▁compon	-6017
▁gemein	-6018
▁moment	-6019
ferences	-6020
▁bereits	-6021
▁sollten	-6022
▁социаль	-6023
▁Thursday	-6024
▁approved	-6025
▁manufact	-6026
▁priority	-6027
▁According	-6028
▁principle	-6029
47	-6030
sy	-6031
一般	-6032
企业	-6033
发达	-6034
当局	-6035
管制	-6036
经费	-6037
azu	-6038
für	-6039
ель	-6040
▁сы	-6041
提出的	-6042
aden	-6043
aken	-6044
anna	-6045
cial	-6046
gypt	-6047
orge	-6048
rich	-6049
vere	-6050
▁Jud	-6051
▁Sun	-6052
ahmen	-6053
angen	-6054
iting	-6055
нение	-6056
▁1998	-6057
▁Like	-6058
▁folg	-6059
▁мира	-6060
▁неза	-6061
联合国系统	-6062
elling	-6063
▁offic	-6064
▁rooms	-6065
▁trust	-6066
▁потре	-6067
▁Mexico	-6068
▁answer	-6069
▁anyone	-6070
▁lassen	-6071
▁seinen	-6072
▁усилия	-6073
▁Foreign	-6074
▁aspects	-6075
▁economy	-6076
▁message	-6077
▁American	-6078
▁benefits	-6079
▁identify	-6080
▁planning	-6081
▁companies	-6082
▁proposals	-6083
▁trafficking	-6084
▁Gemeinschaft	-6085
32	-6086
>>	-6087
yr	-6088
öt	-6089
▁哦	-6090
保障	-6091
内的	-6092
各项	-6093
好的	-6094
禁止	-6095
警察	-6096
财务	-6097
这是	-6098
icy	-6099
leb	-6100
vin	-6101
▁58	-6102
▁ce	-6103
▁Та	-6104
▁ок	-6105
▁оц	-6106
▁我想	-6107
adem	-6108
asst	-6109
erem	-6110
ktur	-6111
unch	-6112
дить	-6113
▁Dav	-6114
▁Fol	-6115
▁Har	-6116
▁low	-6117
▁rev	-6118
▁Кто	-6119
▁вос	-6120
▁год	-6121
▁ещё	-6122
▁удо	-6123
asion	-6124
ismus	-6125
мента	-6126
ходит	-6127
▁Fahr	-6128
▁Gene	-6129
▁Phil	-6130
▁easy	-6131
▁forg	-6132
▁inde	-6133
▁lack	-6134
▁чере	-6135
ennium	-6136
ughter	-6137
▁Roman	-6138
▁Those	-6139
▁autom	-6140
▁crime	-6141
▁forms	-6142
▁knows	-6143
▁music	-6144
▁recon	-6145
▁takes	-6146
▁works	-6147
▁допол	-6148
▁друго	-6149
▁заклю	-6150
▁опера	-6151
▁счита	-6152
ishment	-6153
▁income	-6154
▁select	-6155
▁помощи	-6156
▁способ	-6157
ventions	-6158
▁explain	-6159
▁граждан	-6160
▁expected	-6161
▁industry	-6162
▁language	-6163
▁reduction	-6164
▁indigenous	-6165
▁professional	-6166
7/	-6167
»,	-6168
▁=	-6169
▁‘	-6170
保证	-6171
呼吁	-6172
形式	-6173
生产	-6174
科学	-6175
组成	-6176
集团	-6177
":"	-6178
:19	-6179
oid	-6180
ror	-6181
sec	-6182
sen	-6183
сла	-6184
тан	-6185
▁IN	-6186
llen	-6187
nten	-6188
rial	-6189
yond	-6190
ента	-6191
ружи	-6192
▁Exc	-6193
▁ple	-6194
▁Зна	-6195
▁два	-6196
▁офи	-6197
etzen	-6198
ourag	-6199
ribun	-6200
▁Iran	-6201
▁acqu	-6202
▁elim	-6203
▁eyes	-6204
▁pick	-6205
▁tour	-6206
▁спра	-6207
ressed	-6208
ändern	-6209
ностью	-6210
▁2003,	-6211
▁Famil	-6212
▁Italy	-6213
▁agric	-6214
▁build	-6215
▁defin	-6216
▁equal	-6217
▁parts	-6218
▁Public	-6219
▁refuge	-6220
▁enhance	-6221
▁minutes	-6222
▁regions	-6223
▁remains	-6224
▁similar	-6225
▁Regional	-6226
▁pursuant	-6227
▁Председа	-6228
▁functions	-6229
▁structure	-6230
▁connection	-6231
▁throughout	-6232
▁Environment	-6233
▁communication	-6234
58	-6235
67	-6236
uz	-6237
äm	-6238
ОН	-6239
▁来	-6240
协议	-6241
土著	-6242
威胁	-6243
:26	-6244
дна	-6245
лиш	-6246
оне	-6247
спе	-6248
щем	-6249
▁70	-6250
▁OK	-6251
▁现在	-6252
izes	-6253
дума	-6254
▁Okt	-6255
▁red	-6256
▁сви	-6257
议程项目	-6258
affen	-6259
heits	-6260
ronic	-6261
ulner	-6262
▁Buch	-6263
▁Mach	-6264
▁Mond	-6265
▁baby	-6266
▁fish	-6267
▁mass	-6268
▁schn	-6269
▁авто	-6270
нибудь	-6271
▁Parla	-6272
▁court	-6273
▁haven	-6274
▁quick	-6275
▁viele	-6276
▁würde	-6277
ложение	-6278
▁Absatz	-6279
▁Agenda	-6280
▁Wasser	-6281
▁jedoch	-6282
▁scient	-6283
▁контро	-6284
standing	-6285
▁сделать	-6286
abilities	-6287
aboration	-6288
▁Executive	-6289
▁положения	-6290
▁частности	-6291
▁Democratic	-6292
▁Millennium	-6293
AA	-6294
eg	-6295
一切	-6296
宗教	-6297
尊重	-6298
看到	-6299
联系	-6300
:10	-6301
nes	-6302
гля	-6303
луй	-6304
чит	-6305
что	-6306
шим	-6307
шло	-6308
▁Ah	-6309
▁Ли	-6310
hang	-6311
ream	-6312
▁Bur	-6313
▁Fax	-6314
▁Zug	-6315
▁кри	-6316
iable	-6317
ossen	-6318
vised	-6319
грани	-6320
▁Fall	-6321
▁führ	-6322
▁letz	-6323
▁ship	-6324
▁subs	-6325
▁type	-6326
mittel	-6327
ствует	-6328
▁Daten	-6329
▁Ergeb	-6330
▁Jesus	-6331
▁North	-6332
▁const	-6333
▁ihnen	-6334
▁Indust	-6335
▁Joined	-6336
▁europä	-6337
▁origin	-6338
▁pretty	-6339
▁ничего	-6340
▁времени	-6341
▁equality	-6342
▁probably	-6343
▁Institute	-6344
▁territory	-6345
▁Республики	-6346
▁использова	-6347
▁infrastructure	-6348
PR	-6349
äs	-6350
▁别	-6351
▁本	-6352
例如	-6353
喜欢	-6354
完全	-6355
直接	-6356
者的	-6357
rew	-6358
rip	-6359
вод	-6360
жем	-6361
цев	-6362
▁(3	-6363
▁37	-6364
▁TV	-6365
▁Ки	-6366
和国际	-6367
的所有	-6368
haus	-6369
heim	-6370
icro	-6371
ighb	-6372
rant	-6373
welt	-6374
▁Emp	-6375
▁Mom	-6376
▁bur	-6377
▁hom	-6378
▁бес	-6379
伙伴关系	-6380
arily	-6381
führt	-6382
grund	-6383
ющего	-6384
▁Mein	-6385
▁Name	-6386
▁draw	-6387
▁wind	-6388
▁особ	-6389
estern	-6390
▁Islam	-6391
▁lives	-6392
▁maybe	-6393
▁phone	-6394
▁print	-6395
▁thous	-6396
▁ресур	-6397
▁Follow	-6398
▁Invest	-6399
▁altern	-6400
▁различ	-6401
▁Austral	-6402
▁Ukraine	-6403
▁climate	-6404
▁counter	-6405
▁invited	-6406
▁möglich	-6407
▁updated	-6408
▁включая	-6409
▁следует	-6410
▁reference	-6411
▁facilitate	-6412
▁recommended	-6413
OL	-6414
We	-6415
vo	-6416
юд	-6417
临时	-6418
了解	-6419
刑事	-6420
利益	-6421
同意	-6422
尽管	-6423
广泛	-6424
西亚	-6425
规划	-6426
重新	-6427
ani	-6428
eut	-6429
hlt	-6430
пей	-6431
тем	-6432
щая	-6433
щие	-6434
▁IS	-6435
采取的	-6436
2008	-6437
berg	-6438
rete	-6439
ufen	-6440
вари	-6441
▁Als	-6442
▁Day	-6443
▁Mai	-6444
▁Non	-6445
▁Sir	-6446
▁eat	-6447
▁gun	-6448
▁hus	-6449
▁зем	-6450
▁пря	-6451
aries	-6452
endit	-6453
ienst	-6454
ondon	-6455
rices	-6456
этому	-6457
▁1990	-6458
▁Arch	-6459
▁mine	-6460
▁whom	-6461
▁дека	-6462
images	-6463
itting	-6464
▁Preis	-6465
▁items	-6466
▁жизнь	-6467
▁такой	-6468
ologies	-6469
▁Kinder	-6470
▁Strate	-6471
▁appear	-6472
▁demand	-6473
▁forces	-6474
▁gesagt	-6475
▁online	-6476
▁wouldn	-6477
........	-6478
▁limited	-6479
▁unserer	-6480
▁comments	-6481
▁presented	-6482
▁verschied	-6483
▁discussion	-6484
▁Constitution	-6485
▁circumstances	-6486
▁contributions	-6487
65	-6488
TM	-6489
рю	-6490
▁要	-6491
保留	-6492
债务	-6493
回顾	-6494
完成	-6495
无法	-6496
结构	-6497
过程	-6498
阿富	-6499
:33	-6500
:45	-6501
:57	-6502
ply	-6503
бро	-6504
ьез	-6505
▁45	-6506
▁Бу	-6507
▁Су	-6508
▁ха	-6509
▁是的	-6510
两年期	-6511
AIDS	-6512
abei	-6513
alif	-6514
bild	-6515
eden	-6516
iere	-6517
rist	-6518
rück	-6519
веща	-6520
мери	-6521
рить	-6522
▁Ann	-6523
▁Hel	-6524
▁Mrs	-6525
▁Rel	-6526
▁dav	-6527
▁log	-6528
▁pie	-6529
▁veh	-6530
委员会的	-6531
ensus	-6532
iency	-6533
inary	-6534
linie	-6535
▁City	-6536
▁Tour	-6537
▁Ziel	-6538
ercial	-6539
reland	-6540
▁India	-6541
▁categ	-6542
▁earth	-6543
▁внима	-6544
▁histor	-6545
▁myself	-6546
▁satisf	-6547
▁возмож	-6548
▁доклад	-6549
▁занима	-6550
▁практи	-6551
▁состоя	-6552
genommen	-6553
▁Bericht	-6554
▁greater	-6555
▁himself	-6556
▁welcome	-6557
▁während	-6558
▁Телефон	-6559
▁includes	-6560
▁wirklich	-6561
▁Entscheid	-6562
▁Implement	-6563
▁supported	-6564
▁Entwicklung	-6565
▁integration	-6566
▁understanding	-6567
98	-6568
gn	-6569
uw	-6570
▁°	-6571
不可	-6572
今后	-6573
但是	-6574
关切	-6575
出现	-6576
增长	-6577
640	-6578
:08	-6579
nic	-6580
pid	-6581
set	-6582
uft	-6583
гии	-6584
гре	-6585
шли	-6586
▁Di	-6587
▁ow	-6588
▁Ту	-6589
成员国	-6590
阿富汗	-6591
alle	-6592
ffen	-6593
ноги	-6594
стан	-6595
▁+49	-6596
▁13.	-6597
▁19.	-6598
▁Log	-6599
▁дис	-6600
igten	-6601
recht	-6602
▁Alle	-6603
▁Oper	-6604
▁duty	-6605
▁pain	-6606
▁Хоро	-6607
▁alleg	-6608
▁enfor	-6609
▁minor	-6610
▁teach	-6611
▁wants	-6612
▁своих	-6613
▁через	-6614
ownload	-6615
▁Second	-6616
▁beyond	-6617
▁вопрос	-6618
▁получи	-6619
▁Meeting	-6620
▁Problem	-6621
▁offices	-6622
▁которой	-6623
▁adequate	-6624
▁transition	-6625
▁instruments	-6626
-9	-6627
лн	-6628
яс	-6629
▁很	-6630
一下	-6631
为了	-6632
估计	-6633
你們	-6634
指导	-6635
改善	-6636
法官	-6637
监督	-6638
长期	-6639
201	-6640
ams	-6641
ika	-6642
olf	-6643
ган	-6644
ссо	-6645
тно	-6646
▁5,	-6647
▁54	-6648
▁bi	-6649
▁il	-6650
▁Ви	-6651
▁би	-6652
▁пы	-6653
他们的	-6654
ideo	-6655
iers	-6656
resp	-6657
ript	-6658
креп	-6659
рито	-6660
сить	-6661
▁16.	-6662
▁Dam	-6663
▁Mag	-6664
▁Spe	-6665
▁deg	-6666
▁erf	-6667
▁eth	-6668
▁wid	-6669
▁ана	-6670
asons	-6671
light	-6672
useum	-6673
жалуй	-6674
сколь	-6675
▁Dann	-6676
▁diss	-6677
▁phys	-6678
▁proc	-6679
▁star	-6680
▁step	-6681
▁выбо	-6682
▁выра	-6683
▁даже	-6684
▁наро	-6685
▁руко	-6686
▁тоже	-6687
heiten	-6688
venant	-6689
лишком	-6690
▁fifty	-6691
▁occur	-6692
▁plans	-6693
▁werde	-6694
▁компа	-6695
▁Friday	-6696
▁London	-6697
▁Rahmen	-6698
▁across	-6699
▁border	-6700
▁vulner	-6701
▁понима	-6702
▁торгов	-6703
quarters	-6704
ственных	-6705
▁Bereich	-6706
▁Ireland	-6707
▁benefit	-6708
▁consequ	-6709
▁history	-6710
▁sources	-6711
▁started	-6712
▁никогда	-6713
ibilities	-6714
▁creation	-6715
▁ensuring	-6716
▁families	-6717
▁качестве	-6718
▁beginning	-6719
▁promotion	-6720
▁Protection	-6721
▁introduced	-6722
▁информации	-6723
▁Cooperation	-6724
▁independent	-6725
▁performance	-6726
▁Генеральной	-6727
▁осуществления	-6728
68	-6729
><	-6730
IL	-6731
IP	-6732
üs	-6733
公民	-6734
内容	-6735
危机	-6736
总统	-6737
某些	-6738
相信	-6739
裁军	-6740
观察	-6741
采用	-6742
fon	-6743
▁48	-6744
▁57	-6745
▁Ko	-6746
▁Ве	-6747
▁Ру	-6748
arbe	-6749
erst	-6750
ilfe	-6751
биль	-6752
виси	-6753
чешь	-6754
▁20.	-6755
▁Nur	-6756
▁mut	-6757
▁кор	-6758
▁соб	-6759
▁тут	-6760
▁чис	-6761
falls	-6762
known	-6763
laced	-6764
leist	-6765
seite	-6766
лению	-6767
▁1996	-6768
▁Mehr	-6769
▁Nord	-6770
▁beim	-6771
▁deep	-6772
▁news	-6773
▁seek	-6774
▁надо	-6775
▁поня	-6776
▁прин	-6777
▁уста	-6778
isches	-6779
schuss	-6780
öffent	-6781
▁Panel	-6782
▁aimed	-6783
▁allen	-6784
▁hotel	-6785
▁incor	-6786
▁Между	-6787
▁жизни	-6788
▁прави	-6789
diction	-6790
▁Hotels	-6791
▁Turkey	-6792
▁conven	-6793
▁danger	-6794
▁letter	-6795
▁submit	-6796
▁должна	-6797
▁систем	-6798
▁Oktober	-6799
▁peoples	-6800
▁финансо	-6801
▁purposes	-6802
▁tomorrow	-6803
▁operating	-6804
▁рекоменда	-6805
▁assessment	-6806
▁operational	-6807
IE	-6808
TS	-6809
ae	-6810
my	-6811
ям	-6812
ёт	-6813
一份	-6814
一次	-6815
也是	-6816
扩散	-6817
新闻	-6818
普遍	-6819
气候	-6820
符合	-6821
:17	-6822
III	-6823
еха	-6824
лиз	-6825
риа	-6826
рок	-6827
шел	-6828
▁49	-6829
▁Kl	-6830
▁ut	-6831
▁ры	-6832
工作的	-6833
核武器	-6834
的努力	-6835
的各项	-6836
的执行	-6837
考虑到	-6838
hood	-6839
omin	-6840
pret	-6841
rect	-6842
rieb	-6843
ritt	-6844
мети	-6845
мини	-6846
▁10,	-6847
▁Ken	-6848
▁erw	-6849
▁kur	-6850
▁led	-6851
▁win	-6852
▁Под	-6853
▁важ	-6854
▁нау	-6855
▁слы	-6856
isher	-6857
itzer	-6858
ruppe	-6859
ulate	-6860
ступи	-6861
▁(199	-6862
▁Educ	-6863
▁goes	-6864
▁shit	-6865
▁лишь	-6866
▁меры	-6867
▁разо	-6868
rieben	-6869
▁Civil	-6870
▁Egypt	-6871
▁Hello	-6872
▁Markt	-6873
▁hätte	-6874
▁inner	-6875
▁innov	-6876
▁rates	-6877
▁story	-6878
▁Может	-6879
▁После	-6880
▁такое	-6881
▁указа	-6882
▁участ	-6883
ountain	-6884
▁neighb	-6885
▁wollen	-6886
▁central	-6887
▁overall	-6888
▁порядке	-6889
▁сказать	-6890
▁financing	-6891
▁guidelines	-6892
EA	-6893
ih	-6894
zw	-6895
их	-6896
▁ä	-6897
介绍	-6898
结论	-6899
网络	-6900
虽然	-6901
遵守	-6902
:03	-6903
:35	-6904
тки	-6905
чер	-6906
щий	-6907
▁ти	-6908
▁ши	-6909
▁我的	-6910
提供了	-6911
olle	-6912
rary	-6913
weis	-6914
ünst	-6915
дель	-6916
деть	-6917
казы	-6918
реть	-6919
чный	-6920
▁Ear	-6921
▁Gra	-6922
▁Int	-6923
▁Lux	-6924
▁Mut	-6925
▁Ort	-6926
▁Weg	-6927
▁mur	-6928
▁Änd	-6929
▁вне	-6930
▁ней	-6931
▁тот	-6932
▁фай	-6933
发达国家	-6934
ielen	-6935
prise	-6936
месте	-6937
▁Unit	-6938
▁arch	-6939
▁Афри	-6940
▁высо	-6941
▁комп	-6942
▁цент	-6943
▁birth	-6944
▁brief	-6945
▁cause	-6946
▁creat	-6947
▁dated	-6948
▁liegt	-6949
▁recht	-6950
▁проис	-6951
▁Centre	-6952
▁accomp	-6953
▁couldn	-6954
▁disapp	-6955
▁higher	-6956
▁inside	-6957
▁manner	-6958
▁stated	-6959
▁знаешь	-6960
жалуйста	-6961
▁concept	-6962
▁wichtig	-6963
▁преступ	-6964
ellschaft	-6965
iferation	-6966
▁специаль	-6967
▁guarantee	-6968
▁mentioned	-6969
▁officials	-6970
▁prevention	-6971
▁информацию	-6972
▁Afghanistan	-6973
▁arrangements	-6974
▁Безопасности	-6975
TR	-6976
cu	-6977
保持	-6978
分析	-6979
加拿	-6980
千年	-6981
合同	-6982
审计	-6983
对话	-6984
状况	-6985
资产	-6986
违反	-6987
:22	-6988
Pro	-6989
irt	-6990
lle	-6991
uel	-6992
лез	-6993
▁Ha	-6994
▁зо	-6995
的重要	-6996
zung	-6997
рори	-6998
тать	-6999
▁Kos	-7000
▁Met	-7001
▁Pak	-7002
▁Slo	-7003
▁akt	-7004
▁nun	-7005
▁ord	-7006
▁бра	-7007
▁муж	-7008
inger	-7009
▁Juli	-7010
▁Last	-7011
▁Most	-7012
▁Ober	-7013
▁Wohn	-7014
▁dazu	-7015
▁publ	-7016
▁sold	-7017
特别报告员	-7018
etimes	-7019
▁2000,	-7020
▁Frage	-7021
▁Under	-7022
▁front	-7023
▁goals	-7024
▁illeg	-7025
▁shown	-7026
▁свобо	-7027
▁Lebens	-7028
▁Region	-7029
▁active	-7030
▁irgend	-7031
▁offers	-7032
▁prison	-7033
▁Israeli	-7034
▁exactly	-7035
▁minimum	-7036
▁station	-7037
▁декабря	-7038
▁террито	-7039
▁citizens	-7040
▁solution	-7041
▁encounter	-7042
▁processes	-7043
▁opportunities	-7044
.6	-7045
5%	-7046
69	-7047
IM	-7048
yd	-7049
ск	-7050
эр	-7051
专门	-7052
健康	-7053
分配	-7054
原因	-7055
宣布	-7056
承认	-7057
现有	-7058
还是	-7059
风险	-7060
","	-7061
:24	-7062
ala	-7063
det	-7064
над	-7065
сты	-7066
чем	-7067
▁cm	-7068
和社会	-7069
的影响	-7070
的能力	-7071
ades	-7072
aria	-7073
empt	-7074
ätze	-7075
воль	-7076
дели	-7077
дите	-7078
ками	-7079
читы	-7080
чных	-7081
▁25,	-7082
▁Beg	-7083
▁Pap	-7084
▁Way	-7085
▁sun	-7086
▁пор	-7087
首脑会议	-7088
/2009	-7089
ctors	-7090
endar	-7091
ommod	-7092
участ	-7093
▁Prop	-7094
▁vill	-7095
▁моло	-7096
liance	-7097
licher	-7098
orture	-7099
othing	-7100
urance	-7101
zimmer	-7102
▁Leban	-7103
▁Rates	-7104
▁ausge	-7105
▁compl	-7106
▁deine	-7107
▁einge	-7108
▁kommt	-7109
oration	-7110
ribunal	-7111
лизации	-7112
простра	-7113
▁Territ	-7114
▁Zimmer	-7115
▁minute	-7116
azazazaz	-7117
ensation	-7118
▁dollars	-7119
▁gemacht	-7120
▁whatever	-7121
▁apartment	-7122
▁condition	-7123
▁Конвенции	-7124
▁консульта	-7125
▁Wirtschaft	-7126
▁evaluation	-7127
▁sufficient	-7128
▁preparation	-7129
▁construction	-7130
▁negotiations	-7131
-4	-7132
/?	-7133
⁄4	-7134
▁Ö	-7135
交易	-7136
人们	-7137
外交	-7138
委会	-7139
局势	-7140
星期	-7141
案件	-7142
确认	-7143
纲领	-7144
解释	-7145
达成	-7146
适用	-7147
:40	-7148
nte	-7149
ovo	-7150
ünd	-7151
дра	-7152
лик	-7153
▁33	-7154
▁AG	-7155
▁Zw	-7156
▁你们	-7157
▁在这	-7158
加拿大	-7159
基金会	-7160
的法律	-7161
arus	-7162
iste	-7163
test	-7164
wide	-7165
ären	-7166
мент	-7167
▁(3)	-7168
▁15.	-7169
▁20,	-7170
▁Dez	-7171
▁Kaz	-7172
▁dad	-7173
▁dim	-7174
▁tim	-7175
▁вот	-7176
▁нор	-7177
▁реа	-7178
/2000	-7179
alled	-7180
index	-7181
▁Only	-7182
▁Priv	-7183
▁Tele	-7184
▁acts	-7185
▁fort	-7186
▁kids	-7187
▁loss	-7188
▁всем	-7189
▁себе	-7190
▁jeder	-7191
▁wanna	-7192
▁weeks	-7193
▁детей	-7194
▁пробл	-7195
сколько	-7196
▁Author	-7197
▁Health	-7198
▁Russia	-7199
▁Verein	-7200
▁effort	-7201
▁reduce	-7202
▁Почему	-7203
▁другие	-7204
▁собира	-7205
▁deliver	-7206
▁perfect	-7207
▁произво	-7208
▁слишком	-7209
▁affected	-7210
▁computer	-7211
▁encourag	-7212
▁expendit	-7213
▁informed	-7214
▁original	-7215
▁students	-7216
ustainable	-7217
▁interests	-7218
▁operation	-7219
▁organized	-7220
▁violations	-7221
▁contribution	-7222
▁大	-7223
▁快	-7224
侵犯	-7225
保健	-7226
发挥	-7227
导致	-7228
民族	-7229
还有	-7230
选择	-7231
通知	-7232
那么	-7233
/02	-7234
:12	-7235
:14	-7236
:20	-7237
apt	-7238
cel	-7239
erk	-7240
oes	-7241
pet	-7242
roy	-7243
вое	-7244
туа	-7245
▁AN	-7246
▁Az	-7247
▁Эй	-7248
▁ду	-7249
及社会	-7250
CTAD	-7251
book	-7252
mann	-7253
page	-7254
pite	-7255
rach	-7256
sych	-7257
uted	-7258
äche	-7259
прав	-7260
тора	-7261
хани	-7262
чной	-7263
▁22,	-7264
▁Bos	-7265
▁Rad	-7266
▁Ref	-7267
▁Tim	-7268
▁buy	-7269
▁fem	-7270
▁map	-7271
▁три	-7272
innen	-7273
razil	-7274
стоян	-7275
шений	-7276
юджет	-7277
▁fell	-7278
▁park	-7279
▁wipe	-7280
▁люби	-7281
▁обсу	-7282
▁повы	-7283
atures	-7284
ichtet	-7285
schrif	-7286
▁blood	-7287
▁davon	-7288
▁entry	-7289
▁worry	-7290
▁место	-7291
actions	-7292
areness	-7293
▁Donner	-7294
▁almost	-7295
▁events	-7296
▁happen	-7297
▁subsid	-7298
▁wissen	-7299
▁своего	-7300
ференции	-7301
▁Charter	-7302
▁funding	-7303
▁решения	-7304
▁содержа	-7305
▁стороны	-7306
▁террори	-7307
▁Requests	-7308
▁activity	-7309
▁elements	-7310
▁everyone	-7311
▁некоторы	-7312
▁Australia	-7313
▁contribute	-7314
▁Международ	-7315
▁Генерального	-7316
▁recommendation	-7317
.9	-7318
EU	-7319
ko	-7320
下列	-7321
事实	-7322
全国	-7323
因素	-7324
土地	-7325
如此	-7326
就业	-7327
年的	-7328
恢复	-7329
旨在	-7330
理由	-7331
评价	-7332
转让	-7333
针对	-7334
阶段	-7335
-10	-7336
ipl	-7337
rik	-7338
▁0,	-7339
▁6,	-7340
▁OF	-7341
▁ho	-7342
▁Га	-7343
▁不过	-7344
▁大会	-7345
bass	-7346
erts	-7347
unst	-7348
ском	-7349
▁Est	-7350
▁Kom	-7351
▁Out	-7352
▁Two	-7353
▁mid	-7354
▁шко	-7355
enary	-7356
going	-7357
iding	-7358
ribed	-7359
ложен	-7360
▁Cuba	-7361
▁Miss	-7362
▁Such	-7363
▁cand	-7364
▁died	-7365
▁qual	-7366
▁save	-7367
▁situ	-7368
▁stra	-7369
▁цель	-7370
aurant	-7371
▁2011,	-7372
▁Congo	-7373
▁Spain	-7374
▁goods	-7375
▁media	-7376
▁purch	-7377
▁track	-7378
essions	-7379
imately	-7380
urement	-7381
vements	-7382
▁Geneva	-7383
▁Portug	-7384
▁Review	-7385
▁choice	-7386
▁claims	-7387
▁govern	-7388
▁hatten	-7389
▁indeed	-7390
▁prices	-7391
▁proper	-7392
▁worden	-7393
▁теперь	-7394
gestellt	-7395
▁Samstag	-7396
▁demonst	-7397
▁parents	-7398
▁recover	-7399
▁witness	-7400
besondere	-7401
▁Official	-7402
▁supposed	-7403
▁awareness	-7404
▁региональ	-7405
▁Donnerstag	-7406
▁Richtlinie	-7407
▁undertaken	-7408
▁осуществля	-7409
▁implemented	-7410
▁possibility	-7411
▁appreciation	-7412
▁Implementation	-7413
!"	-7414
5/	-7415
64	-7416
AB	-7417
HO	-7418
za	-7419
上述	-7420
伊斯	-7421
出口	-7422
助于	-7423
占领	-7424
卫星	-7425
反对	-7426
古巴	-7427
日本	-7428
明确	-7429
生物	-7430
的第	-7431
综合	-7432
:36	-7433
:41	-7434
:46	-7435
acc	-7436
ago	-7437
ara	-7438
ena	-7439
hin	-7440
ils	-7441
mbH	-7442
yan	-7443
äss	-7444
▁34	-7445
▁4,	-7446
▁44	-7447
▁59	-7448
▁ше	-7449
▁主席	-7450
为什么	-7451
ancy	-7452
lies	-7453
oved	-7454
rown	-7455
него	-7456
▁500	-7457
▁geb	-7458
▁mis	-7459
▁ter	-7460
▁web	-7461
▁Для	-7462
▁вто	-7463
▁мир	-7464
▁рай	-7465
艾滋病毒	-7466
aught	-7467
emand	-7468
ietet	-7469
inese	-7470
ingen	-7471
owers	-7472
ummer	-7473
рации	-7474
стато	-7475
▁GmbH	-7476
▁Tell	-7477
▁fear	-7478
▁größ	-7479
▁hour	-7480
▁hous	-7481
▁sort	-7482
▁ways	-7483
▁коми	-7484
▁самы	-7485
▁ходе	-7486
annten	-7487
gangen	-7488
lusive	-7489
sprech	-7490
verage	-7491
▁Armen	-7492
▁Haupt	-7493
▁außer	-7494
▁gemäß	-7495
▁paper	-7496
▁round	-7497
schließ	-7498
▁Listen	-7499
▁Monday	-7500
▁adjust	-7501
▁advant	-7502
▁affect	-7503
▁belong	-7504
▁extent	-7505
▁labour	-7506
▁meiner	-7507
▁struct	-7508
▁transl	-7509
▁делать	-7510
▁серьез	-7511
▁страны	-7512
ственной	-7513
▁Produkt	-7514
▁Section	-7515
▁complex	-7516
▁percent	-7517
▁waiting	-7518
▁languages	-7519
▁identified	-7520
▁instrument	-7521
▁effectively	-7522
▁возможность	-7523
▁peacekeeping	-7524
51	-7525
йд	-7526
мя	-7527
》(	-7528
到的	-7529
后续	-7530
将在	-7531
感谢	-7532
纳入	-7533
经常	-7534
请求	-7535
/18	-7536
/58	-7537
:29	-7538
ext	-7539
fre	-7540
vey	-7541
сса	-7542
чки	-7543
▁Ан	-7544
▁我要	-7545
和平与	-7546
情况下	-7547
提供的	-7548
规定的	-7549
ague	-7550
anze	-7551
apon	-7552
bean	-7553
ekte	-7554
folg	-7555
irit	-7556
oped	-7557
raid	-7558
trag	-7559
used	-7560
ктор	-7561
стов	-7562
▁Det	-7563
▁Tom	-7564
▁Val	-7565
▁dog	-7566
▁nut	-7567
▁sei	-7568
▁уни	-7569
▁чув	-7570
obile	-7571
ously	-7572
under	-7573
енные	-7574
строи	-7575
▁Ende	-7576
▁Link	-7577
▁Tage	-7578
▁Time	-7579
▁crim	-7580
▁коне	-7581
▁мини	-7582
▁наде	-7583
▁одна	-7584
经济及社会	-7585
читель	-7586
▁Assoc	-7587
▁Coord	-7588
▁Press	-7589
▁agree	-7590
▁dabei	-7591
▁explo	-7592
▁guess	-7593
▁sagte	-7594
▁speed	-7595
▁steht	-7596
▁touch	-7597
▁Госпо	-7598
▁ситуа	-7599
▁харак	-7600
следова	-7601
▁Greece	-7602
▁darauf	-7603
▁enable	-7604
▁series	-7605
▁simple	-7606
▁simply	-7607
▁states	-7608
▁thanks	-7609
▁worksh	-7610
▁всегда	-7611
▁Justice	-7612
▁attract	-7613
▁coordin	-7614
▁website	-7615
▁транспо	-7616
itzerland	-7617
▁Dezember	-7618
▁incorpor	-7619
▁Directive	-7620
▁discussed	-7621
▁commercial	-7622
▁integrated	-7623
▁communities	-7624
▁implementing	-7625
78	-7626
An	-7627
],	-7628
oo	-7629
▁与	-7630
▁让	-7631
不得	-7632
全体	-7633
扩大	-7634
推动	-7635
改进	-7636
文书	-7637
权力	-7638
残疾	-7639
经验	-7640
群体	-7641
谢谢	-7642
重大	-7643
:13	-7644
bid	-7645
ißt	-7646
ola	-7647
rum	-7648
ube	-7649
uhr	-7650
вле	-7651
гро	-7652
зах	-7653
тур	-7654
шай	-7655
ями	-7656
▁AB	-7657
▁ар	-7658
▁ей	-7659
▁ст	-7660
▁不是	-7661
▁所以	-7662
ICEF	-7663
____	-7664
aily	-7665
ball	-7666
iben	-7667
osla	-7668
reit	-7669
ußen	-7670
word	-7671
äten	-7672
нуть	-7673
▁26.	-7674
▁Att	-7675
▁Mil	-7676
▁Rom	-7677
▁erm	-7678
▁esc	-7679
▁jur	-7680
▁pen	-7681
▁окт	-7682
/2015	-7683
ength	-7684
ishes	-7685
press	-7686
▁1993	-7687
▁1994	-7688
▁Juni	-7689
▁Main	-7690
▁Mart	-7691
▁Stra	-7692
▁Zahl	-7693
▁bath	-7694
▁dort	-7695
▁fall	-7696
▁paid	-7697
▁зада	-7698
▁пода	-7699
▁услу	-7700
▁функ	-7701
altung	-7702
ibbean	-7703
ispiel	-7704
ringen	-7705
tained	-7706
▁aware	-7707
▁dafür	-7708
▁rural	-7709
▁думаю	-7710
▁оружи	-7711
▁такие	-7712
führung	-7713
▁Nether	-7714
▁Thanks	-7715
▁UNCTAD	-7716
▁caused	-7717
▁combat	-7718
▁einmal	-7719
▁gehört	-7720
▁listen	-7721
▁stehen	-7722
▁Привет	-7723
▁догово	-7724
▁механи	-7725
ingungen	-7726
▁century	-7727
▁reached	-7728
▁running	-7729
▁daughter	-7730
▁internal	-7731
▁Caribbean	-7732
▁recognized	-7733
▁представлен	-7734
02	-7735
54	-7736
DC	-7737
do	-7738
fo	-7739
ye	-7740
▁看	-7741
之一	-7742
人类	-7743
倡议	-7744
王国	-7745
申请	-7746
的信	-7747
相互	-7748
紧急	-7749
给我	-7750
自然	-7751
这么	-7752
:05	-7753
:25	-7754
asc	-7755
ees	-7756
ios	-7757
ras	-7758
ula	-7759
zer	-7760
нах	-7761
раи	-7762
сом	-7763
тию	-7764
▁kn	-7765
▁Си	-7766
伊斯兰	-7767
尤其是	-7768
有助于	-7769
anda	-7770
fung	-7771
gabe	-7772
itch	-7773
lekt	-7774
rieg	-7775
rise	-7776
вших	-7777
лежа	-7778
ссий	-7779
стин	-7780
туры	-7781
▁17.	-7782
▁Akt	-7783
▁Bul	-7784
▁Los	-7785
▁Sim	-7786
▁Sud	-7787
▁Tit	-7788
▁USA	-7789
▁Von	-7790
▁alt	-7791
▁ang	-7792
▁fil	-7793
▁hot	-7794
▁weg	-7795
▁наи	-7796
▁поз	-7797
▁фак	-7798
-2005	-7799
arden	-7800
stadt	-7801
▁1997	-7802
▁send	-7803
▁sens	-7804
▁мест	-7805
▁энер	-7806
▁Natur	-7807
▁bitte	-7808
▁https	-7809
▁limit	-7810
▁links	-7811
▁sleep	-7812
▁stock	-7813
▁Аллах	-7814
▁имеет	-7815
istance	-7816
ription	-7817
umption	-7818
▁chance	-7819
▁debate	-7820
▁useful	-7821
▁worked	-7822
▁потому	-7823
hibition	-7824
▁changed	-7825
▁covered	-7826
▁gemeins	-7827
▁medical	-7828
▁outcome	-7829
▁receive	-7830
▁seconds	-7831
▁средств	-7832
经济及社会理事会	-7833
▁Covenant	-7834
▁Division	-7835
▁Специаль	-7836
▁elections	-7837
▁estimated	-7838
▁stability	-7839
▁секретаря	-7840
▁agreements	-7841
▁collection	-7842
▁Netherlands	-7843
▁Sustainable	-7844
▁developments	-7845
▁distribution	-7846
▁participants	-7847
71	-7848
Al	-7849
DA	-7850
zä	-7851
一定	-7852
一级	-7853
业务	-7854
了吗	-7855
关键	-7856
内部	-7857
加入	-7858
另一	-7859
多数	-7860
实体	-7861
德国	-7862
所作	-7863
捐助	-7864
更加	-7865
条款	-7866
法国	-7867
竞争	-7868
第六	-7869
统计	-7870
证据	-7871
:55	-7872
bie	-7873
eed	-7874
het	-7875
ref	-7876
ünf	-7877
вым	-7878
еде	-7879
мет	-7880
пад	-7881
▁CD	-7882
▁Lo	-7883
▁Ma	-7884
▁PC	-7885
▁PR	-7886
▁жа	-7887
▁我是	-7888
的作用	-7889
anst	-7890
emin	-7891
icit	-7892
legt	-7893
olid	-7894
raum	-7895
rote	-7896
äter	-7897
▁18.	-7898
▁Fif	-7899
▁Men	-7900
▁Sep	-7901
▁cru	-7902
▁imm	-7903
▁lay	-7904
▁yes	-7905
▁нео	-7906
▁поо	-7907
▁эту	-7908
▁秘书长	-7909
欧洲联盟	-7910
mical	-7911
держи	-7912
служи	-7913
▁Alex	-7914
▁Auss	-7915
▁Rich	-7916
▁klar	-7917
▁susp	-7918
▁Одна	-7919
▁долл	-7920
assung	-7921
friend	-7922
gleich	-7923
ichten	-7924
olitik	-7925
porary	-7926
rowser	-7927
seiten	-7928
пример	-7929
▁2015,	-7930
▁Niger	-7931
▁Warum	-7932
▁built	-7933
▁notes	-7934
▁seven	-7935
▁sport	-7936
▁требо	-7937
▁утвер	-7938
program	-7939
ression	-7940
ложения	-7941
▁actual	-7942
▁forget	-7943
▁heraus	-7944
▁normal	-7945
▁Соедин	-7946
artments	-7947
▁Arbeits	-7948
▁Members	-7949
▁applied	-7950
▁balance	-7951
▁reasons	-7952
▁проводи	-7953
amarillas	-7954
▁Business	-7955
▁Criminal	-7956
▁Geschäft	-7957
▁calendar	-7958
▁delivery	-7959
▁missions	-7960
▁особенно	-7961
▁Maßnahmen	-7962
▁materials	-7963
▁electronic	-7964
▁delegations	-7965
)(	-7966
IG	-7967
фе	-7968
伊朗	-7969
反映	-7970
声明	-7971
整个	-7972
日在	-7973
表决	-7974
运动	-7975
/56	-7976
:16	-7977
:23	-7978
:54	-7979
bek	-7980
▁IV	-7981
▁Kü	-7982
▁ye	-7983
政府间	-7984
第五十	-7985
语发言	-7986
auer	-7987
enth	-7988
häng	-7989
itag	-7990
unde	-7991
with	-7992
ским	-7993
тных	-7994
чать	-7995
▁Bil	-7996
▁Nat	-7997
▁Tun	-7998
▁gar	-7999
▁hit	-8000
▁ten	-8001
▁Сто	-8002
▁дер	-8003
▁кли	-8004
▁нуж	-8005
▁обу	-8006
▁обы	-8007
发展目标	-8008
维持和平	-8009
level	-8010
lying	-8011
▁1995	-8012
▁Geld	-8013
▁dark	-8014
▁fore	-8015
▁goal	-8016
▁hund	-8017
▁maps	-8018
▁pool	-8019
▁двух	-8020
▁заня	-8021
etzung	-8022
nehmen	-8023
untary	-8024
ваются	-8025
▁2012,	-8026
▁David	-8027
▁Kazak	-8028
▁Satur	-8029
▁beach	-8030
▁drive	-8031
▁looks	-8032
▁lower	-8033
▁natür	-8034
▁scope	-8035
▁Кроме	-8036
▁перед	-8037
▁числе	-8038
aliforn	-8039
ationen	-8040
▁Brazil	-8041
▁Kosovo	-8042
▁Syrian	-8043
▁beiden	-8044
▁findet	-8045
▁gerade	-8046
▁wollte	-8047
▁бюджет	-8048
▁находи	-8049
▁почему	-8050
▁Belarus	-8051
▁Chinese	-8052
▁Möglich	-8053
▁Spanish	-8054
▁billion	-8055
▁holding	-8056
▁husband	-8057
▁initial	-8058
▁methods	-8059
▁picture	-8060
▁Although	-8061
▁Children	-8062
▁Location	-8063
▁Personen	-8064
▁register	-8065
▁Recalling	-8066
▁generated	-8067
▁published	-8068
▁applicable	-8069
▁associated	-8070
▁ответствен	-8071
▁technologies	-8072
"?	-8073
-6	-8074
CO	-8075
ja	-8076
sm	-8077
所需	-8078
水平	-8079
电话	-8080
第四	-8081
部署	-8082
/06	-8083
:21	-8084
:31	-8085
gov	-8086
met	-8087
mos	-8088
upp	-8089
ами	-8090
дии	-8091
ким	-8092
лоб	-8093
мни	-8094
рей	-8095
тар	-8096
шин	-8097
шка	-8098
▁56	-8099
▁Ap	-8100
▁CH	-8101
▁Ав	-8102
▁什么	-8103
不知道	-8104
的活动	-8105
afen	-8106
mary	-8107
onia	-8108
racy	-8109
rick	-8110
weit	-8111
стью	-8112
▁21.	-8113
▁Pop	-8114
▁Sit	-8115
▁bus	-8116
▁cho	-8117
▁обе	-8118
▁уго	-8119
行动纲领	-8120
aging	-8121
indet	-8122
racht	-8123
менно	-8124
▁Code	-8125
▁Hall	-8126
▁Kore	-8127
▁Sche	-8128
▁UNDP	-8129
▁etwa	-8130
▁hung	-8131
▁shot	-8132
▁Груп	-8133
▁меся	-8134
▁нару	-8135
schlag	-8136
ugosla	-8137
ордина	-8138
роприя	-8139
▁2001,	-8140
▁ander	-8141
▁avoid	-8142
▁faith	-8143
▁statt	-8144
▁stuff	-8145
▁мужчи	-8146
▁расши	-8147
▁части	-8148
antwort	-8149
ruction	-8150
▁afraid	-8151
▁approx	-8152
▁bietet	-8153
▁murder	-8154
▁skills	-8155
▁twenty	-8156
▁Хорошо	-8157
▁группа	-8158
▁группы	-8159
▁данных	-8160
▁ограни	-8161
▁повест	-8162
▁работе	-8163
▁статьи	-8164
enschaft	-8165
министра	-8166
▁clearly	-8167
lications	-8168
▁Tribunal	-8169
▁articles	-8170
▁entities	-8171
▁conclusion	-8172
▁consistent	-8173
▁strategies	-8174
▁управления	-8175
▁establishing	-8176
46	-8177
;(	-8178
AG	-8179
IF	-8180
UT	-8181
зе	-8182
ир	-8183
эй	-8184
▁Ð	-8185
人和	-8186
供应	-8187
学校	-8188
应对	-8189
意思	-8190
战争	-8191
改变	-8192
现象	-8193
离开	-8194
第十	-8195
美洲	-8196
/03	-8197
100	-8198
:06	-8199
:28	-8200
:51	-8201
:56	-8202
fin	-8203
iqu	-8204
jan	-8205
rän	-8206
▁38	-8207
▁39	-8208
▁41	-8209
▁61	-8210
▁Up	-8211
▁Се	-8212
▁ос	-8213
▁ша	-8214
在这里	-8215
的建议	-8216
ails	-8217
mand	-8218
nitt	-8219
woch	-8220
вала	-8221
токо	-8222
хран	-8223
▁Far	-8224
▁Hal	-8225
▁Ins	-8226
▁Lou	-8227
▁Opt	-8228
▁pan	-8229
▁seg	-8230
▁sen	-8231
▁umf	-8232
▁бан	-8233
▁ино	-8234
▁реб	-8235
▁уви	-8236
▁我知道	-8237
essor	-8238
itude	-8239
ument	-8240
зиден	-8241
пусти	-8242
▁Fest	-8243
▁Four	-8244
▁Groß	-8245
▁Komp	-8246
▁Maur	-8247
▁Stop	-8248
▁Sure	-8249
▁Thus	-8250
▁cool	-8251
▁hoch	-8252
▁href	-8253
▁luck	-8254
▁горо	-8255
▁куль	-8256
▁любо	-8257
brauch	-8258
ground	-8259
iately	-8260
iences	-8261
ienten	-8262
luding	-8263
▁Namen	-8264
▁Start	-8265
▁Sudan	-8266
▁Table	-8267
▁seems	-8268
▁sense	-8269
▁train	-8270
▁причи	-8271
▁таких	-8272
isional	-8273
дования	-8274
▁Policy	-8275
▁Verfüg	-8276
▁halten	-8277
▁intens	-8278
▁source	-8279
▁большо	-8280
▁защиты	-8281
▁переда	-8282
▁прекра	-8283
▁принци	-8284
▁совеща	-8285
▁уровня	-8286
▁Freitag	-8287
▁destroy	-8288
▁plenary	-8289
▁promise	-8290
▁человек	-8291
ственного	-8292
▁Mittwoch	-8293
▁Saturday	-8294
▁external	-8295
▁направлен	-8296
▁программы	-8297
▁efficiency	-8298
▁scientific	-8299
▁необходимы	-8300
▁Deutschland	-8301
▁legislative	-8302
▁publication	-8303
▁traditional	-8304
▁дополнитель	-8305
▁insbesondere	-8306
59	-8307
RA	-8308
ом	-8309
эн	-8310
▁又	-8311
三个	-8312
不要	-8313
年度	-8314
并不	-8315
来自	-8316
的最	-8317
觉得	-8318
贩运	-8319
:04	-8320
:53	-8321
dam	-8322
gef	-8323
ham	-8324
iot	-8325
jud	-8326
kon	-8327
occ	-8328
rep	-8329
дия	-8330
кви	-8331
рах	-8332
рую	-8333
сут	-8334
шая	-8335
▁65	-8336
▁Му	-8337
▁你是	-8338
的方式	-8339
irms	-8340
lant	-8341
leit	-8342
lier	-8343
roat	-8344
нные	-8345
▁18,	-8346
▁===	-8347
▁Anf	-8348
▁Aud	-8349
▁Eth	-8350
▁Kir	-8351
▁Kop	-8352
▁Mos	-8353
▁sil	-8354
▁squ	-8355
▁поч	-8356
inder	-8357
stein	-8358
ентов	-8359
▁Give	-8360
▁Play	-8361
▁Room	-8362
▁Send	-8363
▁anti	-8364
▁cell	-8365
▁cook	-8366
▁hosp	-8367
▁sagt	-8368
▁даль	-8369
▁дома	-8370
entral	-8371
making	-8372
nesday	-8373
ologie	-8374
unicip	-8375
ленных	-8376
смотри	-8377
▁Augen	-8378
▁Chief	-8379
▁Crime	-8380
▁Draft	-8381
▁Somal	-8382
▁began	-8383
▁favor	-8384
▁forth	-8385
▁macht	-8386
▁schön	-8387
▁shoot	-8388
▁types	-8389
▁этому	-8390
ication	-8391
tenance	-8392
▁Umwelt	-8393
▁charge	-8394
▁couple	-8395
▁island	-8396
▁könnte	-8397
▁turned	-8398
▁основе	-8399
▁страте	-8400
▁follows	-8401
▁gegeben	-8402
▁granted	-8403
▁concerns	-8404
▁guidance	-8405
▁improved	-8406
▁location	-8407
▁majority	-8408
▁restrict	-8409
▁separate	-8410
▁средства	-8411
▁Wednesday	-8412
▁president	-8413
▁compliance	-8414
▁recommends	-8415
▁распростра	-8416
▁Europäische	-8417
▁Switzerland	-8418
▁commitments	-8419
▁immediately	-8420
▁Entscheidung	-8421
DF	-8422
tz	-8423
üb	-8424
▁和	-8425
从而	-8426
做出	-8427
十年	-8428
定的	-8429
工具	-8430
拥有	-8431
程度	-8432
规模	-8433
透明	-8434
那样	-8435
-12	-8436
/04	-8437
/09	-8438
:02	-8439
:07	-8440
ean	-8441
ela	-8442
ini	-8443
lag	-8444
pfl	-8445
бно	-8446
▁8,	-8447
▁IT	-8448
▁VI	-8449
▁Бы	-8450
▁然而	-8451
自己的	-8452
通过了	-8453
abel	-8454
arte	-8455
bank	-8456
cast	-8457
ette	-8458
hest	-8459
razy	-8460
reme	-8461
usch	-8462
либо	-8463
ссия	-8464
тами	-8465
▁mem	-8466
▁Раз	-8467
▁вза	-8468
▁спе	-8469
▁сро	-8470
/2013	-8471
comed	-8472
erien	-8473
hstan	-8474
oring	-8475
▁Back	-8476
▁Bang	-8477
▁Does	-8478
▁Einz	-8479
▁Even	-8480
▁Over	-8481
▁Sing	-8482
▁rock	-8483
▁size	-8484
▁Дума	-8485
▁дело	-8486
▁доро	-8487
▁игра	-8488
▁узна	-8489
......	-8490
▁Bitte	-8491
▁Schwe	-8492
▁bound	-8493
▁meant	-8494
▁reaff	-8495
▁sweet	-8496
▁withd	-8497
▁слова	-8498
alities	-8499
stellen	-8500
▁Agency	-8501
▁Frauen	-8502
▁became	-8503
▁depend	-8504
▁likely	-8505
▁meinen	-8506
▁regime	-8507
▁welche	-8508
▁конкре	-8509
емократи	-8510
▁Company	-8511
▁correct	-8512
▁revised	-8513
▁written	-8514
▁октября	-8515
▁critical	-8516
▁followed	-8517
▁sessions	-8518
▁welcomed	-8519
▁мероприя	-8520
▁проблемы	-8521
▁Anwendung	-8522
▁Education	-8523
▁interpret	-8524
▁terrorist	-8525
▁призывает	-8526
▁Association	-8527
▁proceedings	-8528
%.	-8529
))	-8530
53	-8531
83	-8532
97	-8533
OC	-8534
SP	-8535
WP	-8536
no	-8537
▁也	-8538
一点	-8539
令人	-8540
很多	-8541
手段	-8542
敦促	-8543
该国	-8544
赔偿	-8545
这里	-8546
邀请	-8547
需求	-8548
:38	-8549
:44	-8550
:50	-8551
ead	-8552
gra	-8553
img	-8554
law	-8555
дут	-8556
жде	-8557
зма	-8558
рий	-8559
руг	-8560
чей	-8561
щен	-8562
▁Ac	-8563
▁Gr	-8564
▁Sm	-8565
▁fü	-8566
▁po	-8567
▁ЮН	-8568
▁ан	-8569
▁ри	-8570
▁因为	-8571
▁由于	-8572
方案的	-8573
的任何	-8574
的各种	-8575
atab	-8576
ault	-8577
ford	-8578
iner	-8579
omas	-8580
uber	-8581
вета	-8582
фици	-8583
цеду	-8584
ющее	-8585
▁27.	-8586
▁28.	-8587
▁29.	-8588
▁Inc	-8589
▁Lib	-8590
▁Max	-8591
▁dig	-8592
▁dro	-8593
▁lat	-8594
▁Пра	-8595
▁вой	-8596
▁выс	-8597
▁здо	-8598
▁язы	-8599
气候变化	-8600
的情况下	-8601
-2007	-8602
/2011	-8603
ellig	-8604
punkt	-8605
venth	-8606
шению	-8607
▁Hold	-8608
▁Init	-8609
▁Jack	-8610
▁Mich	-8611
▁News	-8612
▁dise	-8613
▁feed	-8614
▁gets	-8615
▁heav	-8616
▁unit	-8617
▁конф	-8618
▁ника	-8619
▁оцен	-8620
▁реши	-8621
▁смер	-8622
person	-8623
▁Franc	-8624
▁Organ	-8625
▁chair	-8626
▁erste	-8627
▁stage	-8628
▁super	-8629
▁worth	-8630
▁прода	-8631
▁хотел	-8632
related	-8633
respond	-8634
▁Ambass	-8635
▁Norway	-8636
▁candid	-8637
▁crimes	-8638
▁einige	-8639
▁estate	-8640
▁favour	-8641
▁search	-8642
▁времен	-8643
▁Nothing	-8644
▁Projekt	-8645
▁concent	-8646
▁content	-8647
▁culture	-8648
▁eigenen	-8649
▁gesehen	-8650
▁married	-8651
▁ongoing	-8652
▁torture	-8653
tegration	-8654
▁Northern	-8655
▁Portugal	-8656
▁permanent	-8657
▁strategic	-8658
▁несколько	-8659
▁рассматри	-8660
▁Kazakhstan	-8661
▁addressing	-8662
▁achievement	-8663
▁provisional	-8664
▁regulations	-8665
▁международного	-8666
(1	-8667
HR	-8668
PC	-8669
fs	-8670
▁同	-8671
▁听	-8672
出席	-8673
危险	-8674
外国	-8675
妈的	-8676
少数	-8677
我們	-8678
承担	-8679
朋友	-8680
来了	-8681
签署	-8682
编写	-8683
重点	-8684
面临	-8685
马里	-8686
.1.	-8687
/01	-8688
:32	-8689
:58	-8690
ias	-8691
top	-8692
ätz	-8693
бер	-8694
лле	-8695
нам	-8696
сят	-8697
так	-8698
тах	-8699
▁Bü	-8700
▁GM	-8701
行动的	-8702
abil	-8703
aker	-8704
fuhr	-8705
inde	-8706
jahr	-8707
osen	-8708
rier	-8709
rupt	-8710
year	-8711
жает	-8712
лены	-8713
обще	-8714
чает	-8715
▁kam	-8716
高级专员	-8717
cknow	-8718
fully	-8719
ichen	-8720
iling	-8721
itors	-8722
onder	-8723
range	-8724
uting	-8725
örder	-8726
вайте	-8727
мости	-8728
чного	-8729
▁Many	-8730
▁bott	-8731
▁farm	-8732
▁foot	-8733
▁näch	-8734
▁unto	-8735
▁wide	-8736
▁широ	-8737
儿童基金会	-8738
lossen	-8739
▁Musik	-8740
▁Never	-8741
▁abuse	-8742
▁added	-8743
▁board	-8744
▁extra	-8745
▁grand	-8746
▁model	-8747
▁лучше	-8748
▁места	-8749
▁распо	-8750
▁расхо	-8751
▁Mittel	-8752
▁UNICEF	-8753
▁assets	-8754
▁großen	-8755
▁raised	-8756
▁regist	-8757
▁seinem	-8758
▁spread	-8759
▁Прости	-8760
▁делега	-8761
▁помощь	-8762
▁правам	-8763
regional	-8764
тельство	-8765
▁Vertrag	-8766
▁Western	-8767
▁Yugosla	-8768
▁automat	-8769
▁illegal	-8770
▁maximum	-8771
▁measure	-8772
▁subsequ	-8773
▁Спасибо	-8774
▁подтвер	-8775
▁Download	-8776
▁accident	-8777
▁concrete	-8778
▁вопросов	-8779
▁otherwise	-8780
▁программа	-8781
▁Geschichte	-8782
▁individuals	-8783
▁constitution	-8784
▁communications	-8785
LE	-8786
▁;	-8787
▁除	-8788
列入	-8789
医疗	-8790
十分	-8791
实质	-8792
宪章	-8793
巴嫩	-8794
并在	-8795
所述	-8796
才能	-8797
指标	-8798
授权	-8799
最不	-8800
民间	-8801
电子	-8802
的主	-8803
筹备	-8804
索赔	-8805
设备	-8806
访问	-8807
/11	-8808
:09	-8809
Rev	-8810
bad	-8811
bei	-8812
bre	-8813
hel	-8814
hle	-8815
ita	-8816
llt	-8817
mon	-8818
rey	-8819
was	-8820
дук	-8821
рти	-8822
чка	-8823
шем	-8824
▁//	-8825
▁42	-8826
▁ки	-8827
叙利亚	-8828
机构的	-8829
的一个	-8830
组织和	-8831
进行了	-8832
进行的	-8833
黎巴嫩	-8834
What	-8835
este	-8836
reif	-8837
дишь	-8838
нова	-8839
▁14.	-8840
▁16,	-8841
▁17,	-8842
▁27,	-8843
▁Fri	-8844
▁Gar	-8845
▁Imm	-8846
▁Jer	-8847
▁Kan	-8848
▁Kap	-8849
▁Luc	-8850
▁Män	-8851
▁Nun	-8852
▁Pun	-8853
▁Rem	-8854
▁Say	-8855
▁Sen	-8856
▁Sil	-8857
▁huh	-8858
▁tut	-8859
▁unc	-8860
▁мог	-8861
行动计划	-8862
/2006	-8863
arent	-8864
eller	-8865
first	-8866
iment	-8867
ешься	-8868
▁Film	-8869
▁Mary	-8870
▁Prom	-8871
▁Term	-8872
▁Wort	-8873
▁bear	-8874
▁ones	-8875
▁wood	-8876
▁Рабо	-8877
▁лица	-8878
▁мето	-8879
▁поощ	-8880
▁ядер	-8881
acific	-8882
ancial	-8883
econom	-8884
gesamt	-8885
лобаль	-8886
▁Guine	-8887
▁Ihrer	-8888
▁Nacht	-8889
▁absol	-8890
▁lange	-8891
▁serve	-8892
▁shows	-8893
▁white	-8894
▁Давай	-8895
▁целью	-8896
ruption	-8897
▁expand	-8898
▁fulfil	-8899
▁helfen	-8900
▁jemand	-8901
▁keinen	-8902
▁visits	-8903
▁вместе	-8904
▁можете	-8905
▁можешь	-8906
lichkeit	-8907
▁Another	-8908
▁Antwort	-8909
▁British	-8910
▁calling	-8911
▁hundred	-8912
▁Европей	-8913
▁процеду	-8914
▁Partners	-8915
▁intended	-8916
▁physical	-8917
▁religion	-8918
▁Countries	-8919
▁positions	-8920
▁religious	-8921
▁sometimes	-8922
▁населения	-8923
▁governance	-8924
▁leadership	-8925
▁punishment	-8926
▁respective	-8927
▁vulnerable	-8928
▁Республика	-8929
▁представля	-8930
▁destruction	-8931
▁agricultural	-8932
▁effectiveness	-8933
61	-8934
pm	-8935
事件	-8936
享有	-8937
发现	-8938
和第	-8939
境内	-8940
大学	-8941
感到	-8942
拟议	-8943
提议	-8944
材料	-8945
条第	-8946
真正	-8947
统一	-8948
行的	-8949
议会	-8950
贫穷	-8951
那个	-8952
CON	-8953
EUR	-8954
ano	-8955
nia	-8956
orf	-8957
вом	-8958
еть	-8959
или	-8960
кло	-8961
кну	-8962
пло	-8963
тых	-8964
ъем	-8965
▁0.	-8966
▁64	-8967
▁Mw	-8968
▁cy	-8969
▁Ба	-8970
▁国际	-8971
取得的	-8972
号决定	-8973
的其他	-8974
第二十	-8975
aled	-8976
fern	-8977
ffee	-8978
ikan	-8979
inge	-8980
kung	-8981
oral	-8982
pped	-8983
stat	-8984
upid	-8985
voll	-8986
zept	-8987
дент	-8988
клад	-8989
пыта	-8990
сона	-8991
▁14,	-8992
▁23.	-8993
▁Bad	-8994
▁Dok	-8995
▁Inn	-8996
▁Kol	-8997
▁Mot	-8998
▁Typ	-8999
▁gas	-9000
▁gep	-9001
▁zie	-9002
▁тра	-9003
amber	-9004
chsel	-9005
ierra	-9006
ieten	-9007
secut	-9008
нициа	-9009
строй	-9010
чению	-9011
▁Auch	-9012
▁Conc	-9013
▁Hast	-9014
▁Meer	-9015
▁Rück	-9016
▁Serb	-9017
▁Sund	-9018
▁View	-9019
▁craw	-9020
▁sale	-9021
▁vert	-9022
▁гово	-9023
▁поль	-9024
▁пыта	-9025
俄罗斯联邦	-9026
ändert	-9027
стойчи	-9028
▁2013,	-9029
▁Fried	-9030
▁Kunst	-9031
▁Vater	-9032
▁crazy	-9033
▁funny	-9034
▁jeden	-9035
▁obser	-9036
▁voice	-9037
▁wrote	-9038
▁yours	-9039
▁исклю	-9040
▁проси	-9041
▁тобой	-9042
▁укреп	-9043
igation	-9044
lusions	-9045
reichen	-9046
рование	-9047
▁Anzahl	-9048
▁Finanz	-9049
▁Guinea	-9050
▁Museum	-9051
▁damage	-9052
▁decide	-9053
▁giving	-9054
▁unless	-9055
▁законо	-9056
▁работу	-9057
igkeiten	-9058
▁Februar	-9059
▁Machine	-9060
▁Unknown	-9061
▁offered	-9062
▁reduced	-9063
▁studies	-9064
▁version	-9065
▁вопросы	-9066
▁материа	-9067
▁Pakistan	-9068
▁consolid	-9069
▁recently	-9070
▁relation	-9071
▁использу	-9072
▁программ	-9073
▁advantage	-9074
▁challenge	-9075
▁economies	-9076
▁improving	-9077
▁Ассамблеи	-9078
▁completely	-9079
▁components	-9080
▁determined	-9081
▁outstanding	-9082
▁деятельность	-9083
▁сотрудничества	-9084
42	-9085
52	-9086
IA	-9087
It	-9088
NA	-9089
SR	-9090
].	-9091
По	-9092
▁再	-9093
▁可	-9094
不仅	-9095
传播	-9096
修订	-9097
刚果	-9098
发表	-9099
女孩	-9100
官员	-9101
常驻	-9102
担心	-9103
提案	-9104
检查	-9105
爸爸	-9106
登记	-9107
私营	-9108
移民	-9109
给予	-9110
维亚	-9111
职能	-9112
财产	-9113
赞赏	-9114
进入	-9115
酷刑	-9116
题为	-9117
/05	-9118
:59	-9119
EWG	-9120
alm	-9121
cer	-9122
iam	-9123
бре	-9124
гру	-9125
дви	-9126
дой	-9127
сах	-9128
хва	-9129
щую	-9130
▁Na	-9131
▁ST	-9132
▁ря	-9133
▁谢谢	-9134
万美元	-9135
2009	-9136
ered	-9137
ielt	-9138
kten	-9139
lauf	-9140
lege	-9141
link	-9142
reck	-9143
ruch	-9144
ässt	-9145
емые	-9146
мест	-9147
тить	-9148
шать	-9149
▁(4)	-9150
▁Kle	-9151
▁Rev	-9152
▁Tor	-9153
▁Zur	-9154
▁god	-9155
▁Пер	-9156
▁сам	-9157
▁уда	-9158
iance	-9159
schen	-9160
ureau	-9161
uwait	-9162
мести	-9163
ствие	-9164
▁1992	-9165
▁Hung	-9166
▁Höhe	-9167
▁euro	-9168
▁film	-9169
▁Тебе	-9170
▁весь	-9171
▁внут	-9172
▁июня	-9173
▁свой	-9174
▁сюда	-9175
▁твой	-9176
▁увер	-9177
咨询委员会	-9178
ellite	-9179
isiert	-9180
ocracy	-9181
reiben	-9182
▁2014,	-9183
▁Angel	-9184
▁Gründ	-9185
▁Joint	-9186
▁Leute	-9187
▁Quest	-9188
▁Space	-9189
▁Sport	-9190
▁Today	-9191
▁block	-9192
▁decre	-9193
▁große	-9194
▁juris	-9195
▁solid	-9196
▁отчет	-9197
▁прямо	-9198
ktionen	-9199
schnitt	-9200
▁Anhang	-9201
▁bereit	-9202
▁besser	-9203
▁compar	-9204
▁divers	-9205
▁female	-9206
▁измени	-9207
▁уровне	-9208
▁Captain	-9209
▁attempt	-9210
▁letzten	-9211
▁markets	-9212
▁obvious	-9213
▁partner	-9214
▁playing	-9215
▁quickly	-9216
▁sectors	-9217
▁unseren	-9218
▁usually	-9219
▁writing	-9220
▁участие	-9221
▁Decision	-9222
▁accommod	-9223
▁designed	-9224
▁erhalten	-9225
▁presence	-9226
▁requires	-9227
▁Комиссии	-9228
▁предлага	-9229
▁совершен	-9230
▁Authority	-9231
▁Geschäfts	-9232
▁household	-9233
▁immediate	-9234
▁indicated	-9235
▁universal	-9236
▁amendments	-9237
▁paragraphs	-9238
▁supporting	-9239
▁maintenance	-9240
▁организации	-9241
▁relationship	-9242
▁institutional	-9243
▁verschiedenen	-9244
79	-9245
df	-9246
zy	-9247
下来	-9248
下的	-9249
以前	-9250
传统	-9251
体制	-9252
依照	-9253
劳动	-9254
宪法	-9255
性和	-9256
担保	-9257
日内	-9258
条例	-9259
来源	-9260
森林	-9261
每个	-9262
缺乏	-9263
能源	-9264
苏丹	-9265
(1)	-9266
:42	-9267
Sch	-9268
cke	-9269
eil	-9270
ieg	-9271
ona	-9272
udi	-9273
umn	-9274
зер	-9275
зии	-9276
зяй	-9277
ква	-9278
кри	-9279
нен	-9280
ото	-9281
тии	-9282
чай	-9283
▁Us	-9284
▁Ло	-9285
▁为了	-9286
妇女和	-9287
计划署	-9288
aves	-9289
char	-9290
haps	-9291
inth	-9292
lang	-9293
ming	-9294
oyal	-9295
werk	-9296
блюд	-9297
гули	-9298
жида	-9299
лень	-9300
▁400	-9301
▁Equ	-9302
▁Fun	-9303
▁Les	-9304
▁Lin	-9305
▁Sup	-9306
▁Tür	-9307
▁bul	-9308
▁dür	-9309
▁Гер	-9310
▁Слу	-9311
▁дви	-9312
entle	-9313
ногие	-9314
▁Fuck	-9315
▁Note	-9316
▁Paul	-9317
▁Tues	-9318
▁Vien	-9319
▁alia	-9320
▁argu	-9321
▁cold	-9322
▁hurt	-9323
▁insp	-9324
▁load	-9325
▁lose	-9326
▁shar	-9327
▁люди	-9328
▁успе	-9329
人权委员会	-9330
irming	-9331
ческая	-9332
ческий	-9333
ющиеся	-9334
▁Earth	-9335
▁Grand	-9336
▁Korea	-9337
▁Latin	-9338
▁Rober	-9339
▁Stock	-9340
▁Woche	-9341
▁alloc	-9342
▁dance	-9343
▁deren	-9344
▁geben	-9345
▁liber	-9346
▁spons	-9347
▁units	-9348
▁wegen	-9349
▁своем	-9350
▁случи	-9351
▁Center	-9352
▁Kunden	-9353
▁Kuwait	-9354
▁Maurit	-9355
▁Sierra	-9356
▁engine	-9357
▁exceed	-9358
▁highly	-9359
▁kannst	-9360
▁moving	-9361
▁summer	-9362
▁Только	-9363
schaften	-9364
▁Million	-9365
▁element	-9366
▁leading	-9367
▁weitere	-9368
▁Moreover	-9369
▁complain	-9370
▁judicial	-9371
▁perspect	-9372
▁действий	-9373
▁ресурсов	-9374
▁Political	-9375
▁continues	-9376
▁determine	-9377
▁encourage	-9378
▁innerhalb	-9379
▁promoting	-9380
▁sanctions	-9381
▁indicators	-9382
▁settlement	-9383
▁substantial	-9384
▁Gesellschaft	-9385
▁consequences	-9386
▁collaboration	-9387
,《	-9388
Le	-9389
ki	-9390
oe	-9391
zi	-9392
zü	-9393
ун	-9394
▁{	-9395
▁等	-9396
亚洲	-9397
依据	-9398
加勒	-9399
协会	-9400
各方	-9401
在哪	-9402
总部	-9403
找到	-9404
收到	-9405
灾害	-9406
特殊	-9407
立即	-9408
若干	-9409
贡献	-9410
身份	-9411
迅速	-9412
运输	-9413
这项	-9414
首先	-9415
500	-9416
:18	-9417
:43	-9418
bon	-9419
inu	-9420
utt	-9421
ООН	-9422
вую	-9423
шла	-9424
▁(4	-9425
▁47	-9426
▁Av	-9427
▁Ba	-9428
▁Bu	-9429
▁EN	-9430
▁Fä	-9431
▁Ky	-9432
▁id	-9433
▁通过	-9434
受害者	-9435
是一个	-9436
的时候	-9437
alen	-9438
down	-9439
fall	-9440
iant	-9441
inst	-9442
ixty	-9443
klär	-9444
oten	-9445
rage	-9446
räge	-9447
umen	-9448
zone	-9449
боль	-9450
влет	-9451
тера	-9452
▁15,	-9453
▁Ach	-9454
▁Cop	-9455
▁Hin	-9456
▁Kre	-9457
▁Sea	-9458
▁div	-9459
▁ers	-9460
▁sup	-9461
▁Его	-9462
▁Мар	-9463
▁Ско	-9464
▁иде	-9465
各国政府	-9466
联合王国	-9467
/2014	-9468
abled	-9469
ahren	-9470
enten	-9471
halts	-9472
iplom	-9473
ipped	-9474
itect	-9475
lined	-9476
rants	-9477
örper	-9478
ющими	-9479
▁Book	-9480
▁Doch	-9481
▁arbe	-9482
▁boys	-9483
▁card	-9484
▁cert	-9485
▁welt	-9486
▁мной	-9487
▁одно	-9488
▁сент	-9489
▁счет	-9490
▁在这方面	-9491
gemein	-9492
ifying	-9493
resses	-9494
▁Georg	-9495
▁House	-9496
▁Ihren	-9497
▁Timor	-9498
▁genau	-9499
▁lines	-9500
▁medic	-9501
▁phase	-9502
▁psych	-9503
▁radio	-9504
▁trial	-9505
▁users	-9506
▁Ладно	-9507
▁верну	-9508
▁нрави	-9509
▁прось	-9510
▁разре	-9511
science	-9512
steller	-9513
скольку	-9514
ственно	-9515
тивного	-9516
▁Forsch	-9517
▁Mutter	-9518
▁Poland	-9519
▁advice	-9520
▁center	-9521
▁corpor	-9522
▁double	-9523
▁ethnic	-9524
▁harmon	-9525
▁signed	-9526
▁später	-9527
▁stupid	-9528
▁urgent	-9529
▁weight	-9530
▁Теперь	-9531
▁органи	-9532
▁подума	-9533
▁экспер	-9534
economic	-9535
ifically	-9536
richtung	-9537
▁Belgium	-9538
▁Energie	-9539
▁Federal	-9540
▁Islamic	-9541
▁Islands	-9542
▁Tuesday	-9543
▁average	-9544
▁centres	-9545
▁display	-9546
▁schools	-9547
ilitation	-9548
▁Qualität	-9549
▁brauchen	-9550
▁incident	-9551
▁mountain	-9552
▁movement	-9553
▁negative	-9554
▁patients	-9555
▁внимание	-9556
▁производ	-9557
▁торговли	-9558
wirtschaft	-9559
▁appointed	-9560
▁competent	-9561
▁reflected	-9562
▁Ambassador	-9563
▁correspond	-9564
▁initiative	-9565
▁priorities	-9566
▁Furthermore	-9567
▁competition	-9568
▁substantive	-9569
▁compensation	-9570
▁investigation	-9571
▁использования	-9572
▁administration	-9573
.;	-9574
62	-9575
No	-9576
PS	-9577
Sh	-9578
▁_	-9579
▁上	-9580
不断	-9581
两性	-9582
任命	-9583
公开	-9584
公正	-9585
另外	-9586
密切	-9587
当事	-9588
支付	-9589
本国	-9590
核心	-9591
班牙	-9592
破坏	-9593
而言	-9594
职责	-9595
行使	-9596
证明	-9597
走了	-9598
鉴于	-9599
阿尔	-9600
cil	-9601
hof	-9602
ida	-9603
lor	-9604
ora	-9605
ваю	-9606
кам	-9607
рин	-9608
▁52	-9609
▁CO	-9610
▁Ir	-9611
▁Zu	-9612
▁sn	-9613
▁ло	-9614
▁好吧	-9615
加勒比	-9616
必要的	-9617
日内瓦	-9618
机构和	-9619
西班牙	-9620
认识到	-9621
重要的	-9622
Comm	-9623
ella	-9624
hung	-9625
itat	-9626
komm	-9627
mbol	-9628
ords	-9629
resh	-9630
usal	-9631
äste	-9632
▁19,	-9633
▁Bau	-9634
▁Him	-9635
▁Ray	-9636
▁Uns	-9637
▁rob	-9638
▁tit	-9639
▁wat	-9640
▁Где	-9641
▁Ска	-9642
▁взя	-9643
▁моя	-9644
▁осо	-9645
▁оче	-9646
▁убе	-9647
其中包括	-9648
/2008	-9649
achte	-9650
aland	-9651
chter	-9652
kunft	-9653
reten	-9654
riage	-9655
undes	-9656
графи	-9657
жении	-9658
пуска	-9659
▁Each	-9660
▁Free	-9661
▁Pass	-9662
▁Sant	-9663
▁Text	-9664
▁drop	-9665
▁frag	-9666
▁fünf	-9667
▁hate	-9668
▁nein	-9669
▁paar	-9670
▁rise	-9671
▁schl	-9672
▁trou	-9673
▁verd	-9674
▁Пере	-9675
▁друг	-9676
▁моей	-9677
▁непо	-9678
▁пале	-9679
▁побе	-9680
▁поте	-9681
▁убий	-9682
arency	-9683
atform	-9684
itäten	-9685
stream	-9686
тивных	-9687
▁2005.	-9688
▁Abend	-9689
▁Glück	-9690
▁Which	-9691
▁arbit	-9692
▁black	-9693
▁numer	-9694
▁sonst	-9695
▁важно	-9696
▁плохо	-9697
▁тогда	-9698
holders	-9699
▁Januar	-9700
▁Sunday	-9701
▁closed	-9702
▁einzel	-9703
▁entfer	-9704
▁latest	-9705
▁placed	-9706
▁places	-9707
▁sovere	-9708
▁отмети	-9709
▁учетом	-9710
ervation	-9711
▁Lebanon	-9712
▁Support	-9713
▁announc	-9714
▁bestimm	-9715
▁bleiben	-9716
▁comfort	-9717
▁comment	-9718
▁conform	-9719
▁constit	-9720
▁highest	-9721
▁illicit	-9722
▁meaning	-9723
▁willing	-9724
▁говорит	-9725
▁удовлет	-9726
▁Beispiel	-9727
▁civilian	-9728
▁produced	-9729
▁software	-9730
▁законода	-9731
▁координа	-9732
▁которого	-9733
▁официаль	-9734
▁проблема	-9735
▁развитию	-9736
▁objective	-9737
▁practical	-9738
▁solutions	-9739
▁violation	-9740
▁approaches	-9741
▁interested	-9742
▁obligation	-9743
▁администра	-9744
roliferation	-9745
▁enforcement	-9746
▁governments	-9747
▁improvement	-9748
▁Discrimination	-9749
96	-9750
VI	-9751
XX	-9752
ÿÿ	-9753
из	-9754
▁Ç	-9755
▁从	-9756
世纪	-9757
为此	-9758
主任	-9759
举办	-9760
公平	-9761
农村	-9762
基于	-9763
多边	-9764
拟订	-9765
是个	-9766
更好	-9767
有人	-9768
构成	-9769
海洋	-9770
自愿	-9771
贸发	-9772
.15	-9773
.2.	-9774
/60	-9775
12)	-9776
:37	-9777
:39	-9778
:47	-9779
:48	-9780
Die	-9781
bet	-9782
eds	-9783
heb	-9784
hem	-9785
lax	-9786
ned	-9787
ova	-9788
ämp	-9789
еди	-9790
лин	-9791
раз	-9792
тай	-9793
▁#3	-9794
▁7,	-9795
▁9,	-9796
▁97	-9797
▁Kh	-9798
▁虽然	-9799
对妇女	-9800
报告的	-9801
best	-9802
cies	-9803
illa	-9804
kept	-9805
ront	-9806
zech	-9807
дним	-9808
кому	-9809
лект	-9810
нему	-9811
▁150	-9812
▁23,	-9813
▁30.	-9814
▁31.	-9815
▁Eas	-9816
▁HER	-9817
▁Its	-9818
▁UNF	-9819
▁frü	-9820
▁lic	-9821
▁сра	-9822
基础设施	-9823
illed	-9824
irmed	-9825
блюда	-9826
стана	-9827
циями	-9828
▁Denn	-9829
▁Food	-9830
▁Mult	-9831
▁Open	-9832
▁Page	-9833
▁Sohn	-9834
▁Verw	-9835
▁conv	-9836
▁core	-9837
▁deut	-9838
▁eben	-9839
▁mist	-9840
▁slow	-9841
▁task	-9842
▁wohl	-9843
▁маши	-9844
▁семь	-9845
▁стан	-9846
▁чего	-9847
ective	-9848
ellung	-9849
kungen	-9850
ruppen	-9851
▁2002,	-9852
▁Alger	-9853
▁Behör	-9854
▁König	-9855
▁Liber	-9856
▁Micro	-9857
▁Rwand	-9858
▁Third	-9859
▁fixed	-9860
▁guest	-9861
▁piece	-9862
▁plant	-9863
▁waste	-9864
▁Амери	-9865
▁Казах	-9866
▁знать	-9867
▁могли	-9868
最不发达国家	-9869
ensions	-9870
▁Number	-9871
▁Seiten	-9872
▁Vienna	-9873
▁acknow	-9874
▁mainly	-9875
▁notice	-9876
▁willst	-9877
▁проект	-9878
national	-9879
▁Wayback	-9880
▁allowed	-9881
▁besteht	-9882
▁crawled	-9883
▁instead	-9884
▁municip	-9885
▁primary	-9886
▁records	-9887
▁release	-9888
▁другими	-9889
▁течение	-9890
schriften	-9891
▁approval	-9892
▁customer	-9893
▁officers	-9894
▁refugees	-9895
▁remained	-9896
▁повестки	-9897
▁сентября	-9898
▁собствен	-9899
следования	-9900
▁Unterstüt	-9901
▁entsprech	-9902
▁содействи	-9903
▁continuing	-9904
▁democratic	-9905
▁encouraged	-9906
▁situations	-9907
▁учреждения	-9908
▁discussions	-9909
▁availability	-9910
▁independence	-9911
▁multilateral	-9912
▁представителя	-9913
")	-9914
84	-9915
Ar	-9916
DE	-9917
GO	-9918
Is	-9919
ME	-9920
pa	-9921
ße	-9922
лл	-9923
“,	-9924
▁而	-9925
专业	-9926
产品	-9927
允许	-9928
几个	-9929
历史	-9930
墨西	-9931
宣传	-9932
巴西	-9933
心理	-9934
成本	-9935
欧盟	-9936
死亡	-9937
达到	-9938
采购	-9939
/59	-9940
1⁄4	-9941
:49	-9942
BAR	-9943
ELL	-9944
ENT	-9945
ael	-9946
ais	-9947
ask	-9948
die	-9949
ero	-9950
iop	-9951
ips	-9952
osh	-9953
prü	-9954
una	-9955
мся	-9956
них	-9957
спа	-9958
там	-9959
тен	-9960
тец	-9961
▁不要	-9962
了一个	-9963
克斯坦	-9964
共同体	-9965
非正式	-9966
/59/	-9967
aign	-9968
atar	-9969
aved	-9970
gers	-9971
iker	-9972
isco	-9973
ixth	-9974
ktor	-9975
renz	-9976
rite	-9977
rust	-9978
will	-9979
ände	-9980
ösen	-9981
вини	-9982
жден	-9983
нача	-9984
рами	-9985
тите	-9986
чные	-9987
▁24,	-9988
▁DLL	-9989
▁Obs	-9990
▁Ord	-9991
▁Pra	-9992
▁Put	-9993
▁Sur	-9994
▁Wil	-9995
▁neu	-9996
▁rid	-9997
▁бро	-9998
▁диа	-9999
▁пой	-10000
▁сою	-10001
▁спи	-10002
次会议上	-10003
的重要性	-10004
/2003	-10005
atten	-10006
aufen	-10007
loads	-10008
мотри	-10009
нению	-10010
▁Drug	-10011
▁Elim	-10012
▁Holy	-10013
▁Werk	-10014
▁Wood	-10015
▁cash	-10016
▁firm	-10017
▁path	-10018
▁quar	-10019
▁ther	-10020
▁Всем	-10021
▁зако	-10022
▁отра	-10023
▁приз	-10024
开发计划署	-10025
immung	-10026
нологи	-10027
сматри	-10028
▁Adopt	-10029
▁Asian	-10030
▁Force	-10031
▁Leone	-10032
▁Peter	-10033
▁daily	-10034
▁dream	-10035
▁gives	-10036
▁gradu	-10037
▁guide	-10038
▁image	-10039
▁sites	-10040
▁stark	-10041
▁wicht	-10042
▁воору	-10043
▁закон	-10044
▁собой	-10045
千年发展目标	-10046
кримина	-10047
▁Argent	-10048
▁Kosten	-10049
▁Sweden	-10050
▁Terror	-10051
▁Thomas	-10052
▁appeal	-10053
▁passed	-10054
▁racial	-10055
▁spirit	-10056
▁update	-10057
▁values	-10058
▁vielen	-10059
▁Однако	-10060
▁борьбе	-10061
▁инициа	-10062
▁подчер	-10063
▁привет	-10064
▁сделал	-10065
▁сообще	-10066
handlung	-10067
статочно	-10068
▁Austria	-10069
▁Hamburg	-10070
▁Italian	-10071
▁failure	-10072
▁largest	-10073
▁prepare	-10074
▁schnell	-10075
▁stellen	-10076
▁traffic	-10077
▁конфлик	-10078
▁развива	-10079
▁решение	-10080
▁Services	-10081
▁discover	-10082
▁informal	-10083
▁starting	-10084
▁Financial	-10085
▁Millionen	-10086
▁Verfügung	-10087
▁conducted	-10088
▁construct	-10089
▁cooperate	-10090
▁thousands	-10091
▁настоящее	-10092
▁различных	-10093
▁дискримина	-10094
▁пожалуйста	-10095
▁территории	-10096
▁specifically	-10097
▁documentation	-10098
▁Administration	-10099
";	-10100
74	-10101
MP	-10102
Ph	-10103
RS	-10104
рг	-10105
сё	-10106
▁`	-10107
▁́	-10108
▁把	-10109
一名	-10110
价值	-10111
出的	-10112
加以	-10113
召开	-10114
员额	-10115
土耳	-10116
案文	-10117
每年	-10118
的话	-10119
贫困	-10120
-19	-10121
:34	-10122
:52	-10123
You	-10124
ech	-10125
erl	-10126
gic	-10127
oud	-10128
ufe	-10129
uls	-10130
вез	-10131
дам	-10132
дца	-10133
жит	-10134
зад	-10135
тин	-10136
ток	-10137
тые	-10138
▁(5	-10139
▁->	-10140
▁Id	-10141
▁Mc	-10142
▁Ok	-10143
▁kg	-10144
▁ид	-10145
▁怎么	-10146
▁欢迎	-10147
不扩散	-10148
和保护	-10149
和技术	-10150
土耳其	-10151
墨西哥	-10152
提出了	-10153
的主要	-10154
的发展	-10155
范围内	-10156
/-/-	-10157
OTEL	-10158
ften	-10159
here	-10160
occo	-10161
onds	-10162
osis	-10163
road	-10164
time	-10165
utzt	-10166
üsse	-10167
емся	-10168
мати	-10169
того	-10170
фика	-10171
▁(10	-10172
▁Big	-10173
▁Dat	-10174
▁Deb	-10175
▁Esp	-10176
▁Hon	-10177
▁Kat	-10178
▁Rac	-10179
▁Top	-10180
▁Vir	-10181
▁dri	-10182
▁erg	-10183
▁fal	-10184
▁Вер	-10185
▁Шта	-10186
▁глу	-10187
▁цен	-10188
能力建设	-10189
belie	-10190
blick	-10191
endum	-10192
eters	-10193
gelbe	-10194
ienen	-10195
osoph	-10196
rache	-10197
rance	-10198
right	-10199
verse	-10200
zogen	-10201
▁Hoch	-10202
▁Raum	-10203
▁Wert	-10204
▁ball	-10205
▁calc	-10206
▁hair	-10207
▁imag	-10208
▁komp	-10209
▁leid	-10210
▁sell	-10211
▁дево	-10212
▁мере	-10213
▁ними	-10214
▁пози	-10215
▁пути	-10216
cuador	-10217
ellect	-10218
estens	-10219
ittees	-10220
ruktur	-10221
schuld	-10222
▁About	-10223
▁Goals	-10224
▁Hause	-10225
▁Jetzt	-10226
▁Platz	-10227
▁Their	-10228
▁Waren	-10229
▁ahead	-10230
▁alive	-10231
▁legit	-10232
▁paras	-10233
▁regul	-10234
▁remed	-10235
▁video	-10236
▁какой	-10237
▁одной	-10238
▁путем	-10239
▁сокра	-10240
▁таким	-10241
schluss	-10242
▁Fragen	-10243
▁Indeed	-10244
▁Middle	-10245
▁Muslim	-10246
▁Online	-10247
▁Source	-10248
▁criter	-10249
▁figure	-10250
▁hinter	-10251
▁middle	-10252
▁obtain	-10253
▁opened	-10254
▁reject	-10255
▁sister	-10256
▁verste	-10257
▁взаимо	-10258
▁возвра	-10259
▁малень	-10260
▁произо	-10261
▁свидет	-10262
▁такого	-10263
▁хочешь	-10264
isierung	-10265
minister	-10266
▁Finally	-10267
▁Indones	-10268
▁Journal	-10269
▁Persons	-10270
▁Website	-10271
▁closely	-10272
▁focused	-10273
▁missing	-10274
▁payment	-10275
▁popular	-10276
▁richtig	-10277
▁которое	-10278
▁устойчи	-10279
▁финанси	-10280
▁Produkte	-10281
▁carrying	-10282
▁chemical	-10283
▁freedoms	-10284
▁hospital	-10285
▁straight	-10286
▁разработ	-10287
▁Parlament	-10288
▁achieving	-10289
▁bilateral	-10290
▁conflicts	-10291
▁direction	-10292
▁insurance	-10293
issenschaft	-10294
▁confidence	-10295
▁regulation	-10296
▁involvement	-10297
▁transactions	-10298
▁approximately	-10299
03	-10300
BI	-10301
CD	-10302
FF	-10303
ca	-10304
je	-10305
ky	-10306
ён	-10307
▁去	-10308
▁真	-10309
》。	-10310
中所	-10311
众国	-10312
再次	-10313
单位	-10314
各自	-10315
困难	-10316
失所	-10317
指控	-10318
最高	-10319
来说	-10320
流离	-10321
男女	-10322
立场	-10323
纽约	-10324
训练	-10325
那里	-10326
里亚	-10327
高兴	-10328
:27	-10329
HCR	-10330
ags	-10331
eng	-10332
iro	-10333
völ	-10334
yer	-10335
раб	-10336
рот	-10337
сло	-10338
тый	-10339
ьми	-10340
▁Ak	-10341
▁Sl	-10342
▁Tw	-10343
▁ma	-10344
▁Çá	-10345
▁Лю	-10346
▁ог	-10347
▁一个	-10348
会议上	-10349
告诉我	-10350
的经济	-10351
观察员	-10352
适当的	-10353
hund	-10354
iens	-10355
iest	-10356
ieth	-10357
lict	-10358
ogar	-10359
otal	-10360
stra	-10361
uled	-10362
zess	-10363
дешь	-10364
коми	-10365
лить	-10366
ница	-10367
тиво	-10368
▁22.	-10369
▁600	-10370
▁ECU	-10371
▁Ess	-10372
▁Fac	-10373
▁Gut	-10374
▁Lös	-10375
▁Tre	-10376
▁ain	-10377
▁ken	-10378
▁ris	-10379
▁sla	-10380
▁vac	-10381
▁via	-10382
▁пов	-10383
地注意到	-10384
流离失所	-10385
adies	-10386
afety	-10387
arity	-10388
artet	-10389
asure	-10390
gehen	-10391
ighth	-10392
ionen	-10393
ivity	-10394
oking	-10395
orial	-10396
point	-10397
rible	-10398
skept	-10399
телем	-10400
▁Beit	-10401
▁Hait	-10402
▁Ibid	-10403
▁Keep	-10404
▁Turk	-10405
▁kept	-10406
▁kont	-10407
▁poll	-10408
▁rent	-10409
▁repe	-10410
▁soul	-10411
▁surv	-10412
▁weak	-10413
▁похо	-10414
▁проф	-10415
▁ради	-10416
United	-10417
indung	-10418
schein	-10419
влении	-10420
ждение	-10421
ровали	-10422
▁Break	-10423
▁Czech	-10424
▁Kraft	-10425
▁Legal	-10426
▁Saudi	-10427
▁award	-10428
▁celeb	-10429
▁genug	-10430
▁gesam	-10431
▁ihrem	-10432
▁older	-10433
▁rapid	-10434
▁spend	-10435
▁комна	-10436
atively	-10437
gesehen	-10438
glichen	-10439
reibung	-10440
▁Energy	-10441
▁Having	-10442
▁Inform	-10443
▁actors	-10444
▁asking	-10445
▁dinner	-10446
▁doctor	-10447
▁forced	-10448
▁gentle	-10449
▁gewähr	-10450
▁medium	-10451
▁meinem	-10452
▁played	-10453
▁schwer	-10454
▁unique	-10455
▁Аллаха	-10456
▁Просто	-10457
▁доступ	-10458
▁другой	-10459
▁членов	-10460
▁Italien	-10461
▁Morocco	-10462
▁Nigeria	-10463
▁Somalia	-10464
▁Zealand	-10465
▁airport	-10466
▁alleged	-10467
▁fishing	-10468
▁kleinen	-10469
▁numbers	-10470
▁vehicle	-10471
▁verwend	-10472
▁village	-10473
▁Previous	-10474
▁accepted	-10475
▁detailed	-10476
▁peaceful	-10477
▁resident	-10478
▁surround	-10479
▁Patienten	-10480
▁Recommend	-10481
▁Regierung	-10482
▁Technical	-10483
▁completed	-10484
▁genannten	-10485
▁generally	-10486
▁highlight	-10487
▁deployment	-10488
▁supplement	-10489
▁Elimination	-10490
▁appointment	-10491
▁differences	-10492
▁procurement	-10493
▁reservation	-10494
▁applications	-10495
▁europäischen	-10496
▁implications	-10497
▁transparency	-10498
▁использовать	-10499
▁Unterstützung	-10500
-7	-10501
05	-10502
82	-10503
AU	-10504
RE	-10505
ga	-10506
ху	-10507
▁下	-10508
▁嘿	-10509
主管	-10510
之外	-10511
修正	-10512
名单	-10513
商业	-10514
商定	-10515
城市	-10516
增强	-10517
复杂	-10518
定期	-10519
帝汶	-10520
性质	-10521
数量	-10522
有限	-10523
爱的	-10524
足够	-10525
-11	-10526
-18	-10527
.1,	-10528
aza	-10529
ede	-10530
imb	-10531
rob	-10532
ros	-10533
вей	-10534
лий	-10535
мыш	-10536
рет	-10537
рту	-10538
▁0%	-10539
▁>>	-10540
▁эк	-10541
▁当然	-10542
▁最后	-10543
▁这一	-10544
的基础	-10545
的行动	-10546
CONF	-10547
ente	-10548
haft	-10549
ibly	-10550
icip	-10551
ifiz	-10552
ilen	-10553
енти	-10554
тего	-10555
тесь	-10556
▁30,	-10557
▁Hen	-10558
▁Mün	-10559
▁Prü	-10560
▁box	-10561
▁сум	-10562
国际合作	-10563
alter	-10564
erbai	-10565
gaben	-10566
hmens	-10567
ladys	-10568
okrat	-10569
orgen	-10570
ulous	-10571
uties	-10572
льных	-10573
▁Bulg	-10574
▁Cast	-10575
▁Cust	-10576
▁Heil	-10577
▁Luft	-10578
▁Resp	-10579
▁Very	-10580
▁Vice	-10581
▁anim	-10582
▁bran	-10583
▁cart	-10584
▁enem	-10585
▁ermö	-10586
▁evil	-10587
▁felt	-10588
▁fuel	-10589
▁race	-10590
▁song	-10591
▁ведь	-10592
▁глав	-10593
▁наси	-10594
▁пять	-10595
▁элем	-10596
bereit	-10597
elfare	-10598
onders	-10599
зидент	-10600
зможно	-10601
▁1999,	-10602
▁2004.	-10603
▁Gegen	-10604
▁Price	-10605
▁Trust	-10606
▁adapt	-10607
▁aufge	-10608
▁betre	-10609
▁decla	-10610
▁glass	-10611
▁mobil	-10612
▁north	-10613
▁raise	-10614
▁rehab	-10615
▁reven	-10616
▁sieht	-10617
▁tasks	-10618
▁tried	-10619
▁каждо	-10620
▁можем	-10621
▁потом	-10622
▁пункт	-10623
▁среди	-10624
▁целей	-10625
gesetzt	-10626
uploads	-10627
тельств	-10628
▁Bosnia	-10629
▁Dieses	-10630
▁George	-10631
▁Gruppe	-10632
▁Police	-10633
▁Rechts	-10634
▁Vielle	-10635
▁church	-10636
▁direkt	-10637
▁fisher	-10638
▁owners	-10639
▁sollen	-10640
▁замеча	-10641
▁относи	-10642
▁потеря	-10643
▁принад	-10644
lacement	-10645
▁Azerbai	-10646
▁Britain	-10647
▁Chamber	-10648
▁Ecuador	-10649
▁Familie	-10650
▁Telefon	-10651
▁ability	-10652
▁elected	-10653
▁evening	-10654
▁feeling	-10655
▁grounds	-10656
▁options	-10657
▁science	-10658
▁Поэтому	-10659
▁персона	-10660
▁постоян	-10661
▁сказала	-10662
skeptical	-10663
▁Software	-10664
▁actively	-10665
▁although	-10666
▁creating	-10667
▁minister	-10668
▁Комитета	-10669
▁dangerous	-10670
▁employees	-10671
▁everybody	-10672
▁extension	-10673
▁insgesamt	-10674
▁Vielleicht	-10675
▁industrial	-10676
▁membership	-10677
▁обеспечить	-10678
▁specialized	-10679
▁организаций	-10680
▁consultation	-10681
▁exploitation	-10682
▁strengthened	-10683
▁Zusammenarbeit	-10684
skepticalscience	-10685
/9	-10686
72	-10687
86	-10688
::	-10689
LO	-10690
PG	-10691
SS	-10692
TH	-10693
ho	-10694
фа	-10695
▁~	-10696
▁小	-10697
也不	-10698
交流	-10699
什麼	-10700
做的	-10701
农业	-10702
合法	-10703
回来	-10704
属于	-10705
愿意	-10706
提到	-10707
澳大	-10708
编制	-10709
视为	-10710
质量	-10711
-01	-10712
-05	-10713
300	-10714
Art	-10715
EEC	-10716
fäh	-10717
umm	-10718
vak	-10719
бри	-10720
воз	-10721
ним	-10722
рез	-10723
тая	-10724
▁(+	-10725
▁..	-10726
▁你的	-10727
▁你要	-10728
▁我会	-10729
人权和	-10730
亿美元	-10731
向大会	-10732
和经济	-10733
国家和	-10734
1996	-10735
1998	-10736
Next	-10737
amin	-10738
aust	-10739
fert	-10740
hler	-10741
iced	-10742
igte	-10743
igur	-10744
miss	-10745
oden	-10746
oles	-10747
spro	-10748
анда	-10749
водя	-10750
нять	-10751
ское	-10752
▁11,	-10753
▁25.	-10754
▁Bra	-10755
▁Enc	-10756
▁Joh	-10757
▁Kur	-10758
▁Soc	-10759
▁Tal	-10760
▁Thu	-10761
▁Wow	-10762
▁dan	-10763
▁gee	-10764
▁Нам	-10765
▁你知道	-10766
▁注意到	-10767
武装冲突	-10768
澳大利亚	-10769
.2015	-10770
/2001	-10771
/2002	-10772
/2010	-10773
alten	-10774
astic	-10775
bewer	-10776
files	-10777
forum	-10778
house	-10779
ilvia	-10780
iring	-10781
itter	-10782
licht	-10783
sehen	-10784
ведли	-10785
вости	-10786
лении	-10787
нитар	-10788
парта	-10789
чении	-10790
▁Conf	-10791
▁Cost	-10792
▁Data	-10793
▁Flug	-10794
▁Norm	-10795
▁Seit	-10796
▁Team	-10797
▁Volk	-10798
▁base	-10799
▁born	-10800
▁burn	-10801
▁dear	-10802
▁erad	-10803
▁erkl	-10804
▁ging	-10805
▁hang	-10806
▁kurz	-10807
▁laun	-10808
▁prem	-10809
▁shut	-10810
▁Этот	-10811
▁виде	-10812
▁годы	-10813
▁начи	-10814
▁озна	-10815
▁окру	-10816
▁охра	-10817
▁посе	-10818
▁твоя	-10819
▁тому	-10820
▁угро	-10821
小组委员会	-10822
/07/16	-10823
amples	-10824
ferenz	-10825
liches	-10826
ziehen	-10827
верной	-10828
▁2002.	-10829
▁2007.	-10830
▁Enter	-10831
▁Herrn	-10832
▁Ihrem	-10833
▁Meine	-10834
▁Prime	-10835
▁allem	-10836
▁depos	-10837
▁doubt	-10838
▁files	-10839
▁indem	-10840
▁named	-10841
▁renew	-10842
▁strug	-10843
▁throw	-10844
▁unver	-10845
▁youth	-10846
▁Израи	-10847
▁готов	-10848
▁назад	-10849
▁потен	-10850
▁Erfahr	-10851
▁arrest	-10852
▁coffee	-10853
▁credit	-10854
▁forest	-10855
▁listed	-10856
▁safegu	-10857
▁senior	-10858
▁würden	-10859
▁катего	-10860
▁момент	-10861
▁наказа	-10862
zeichnet	-10863
▁Armenia	-10864
▁Pacific	-10865
▁Politik	-10866
▁advance	-10867
▁bringen	-10868
▁command	-10869
▁entwick	-10870
▁factors	-10871
▁helping	-10872
▁leaving	-10873
▁opening	-10874
▁внутрен	-10875
▁встреча	-10876
▁глобаль	-10877
▁говорил	-10878
▁котором	-10879
▁органов	-10880
▁позволя	-10881
▁установ	-10882
ciliation	-10883
ellectual	-10884
▁Computer	-10885
▁Cultural	-10886
▁category	-10887
▁intellig	-10888
▁purchase	-10889
▁recovery	-10890
▁комитета	-10891
▁палестин	-10892
▁последни	-10893
▁согласно	-10894
▁являются	-10895
ladysilvia	-10896
orderungen	-10897
▁Ausschuss	-10898
▁Christian	-10899
▁consensus	-10900
▁described	-10901
▁voluntary	-10902
▁предусмот	-10903
▁conformity	-10904
▁difference	-10905
▁registered	-10906
▁statistics	-10907
▁submission	-10908
▁происходит	-10909
▁alternative	-10910
▁association	-10911
▁functioning	-10912
▁partnership	-10913
▁territories	-10914
▁partnerships	-10915
%。	-10916
.'	-10917
IK	-10918
Sp	-10919
WA	-10920
td	-10921
нд	-10922
以英	-10923
信仰	-10924
出去	-10925
分子	-10926
力量	-10927
地点	-10928
妈妈	-10929
寻求	-10930
尚未	-10931
尼斯	-10932
平民	-10933
并将	-10934
开放	-10935
我想	-10936
我是	-10937
所涉	-10938
支出	-10939
未来	-10940
本身	-10941
步骤	-10942
特设	-10943
肯定	-10944
落实	-10945
调整	-10946
超过	-10947
过来	-10948
/57	-10949
400	-10950
UNG	-10951
dec	-10952
dll	-10953
gin	-10954
nee	-10955
хов	-10956
шки	-10957
▁51	-10958
▁Ru	-10959
▁[1	-10960
▁пя	-10961
▁好了	-10962
▁还有	-10963
东帝汶	-10964
政策和	-10965
是什么	-10966
有效地	-10967
的信息	-10968
aven	-10969
enny	-10970
iano	-10971
isse	-10972
ores	-10973
sprü	-10974
uche	-10975
umed	-10976
zust	-10977
ügen	-10978
годи	-10979
нной	-10980
номо	-10981
роле	-10982
циям	-10983
член	-10984
▁(5)	-10985
▁AND	-10986
▁Bol	-10987
▁Eff	-10988
▁Jac	-10989
▁Loc	-10990
▁Nam	-10991
▁Nic	-10992
▁Süd	-10993
▁Tar	-10994
▁Use	-10995
▁arm	-10996
▁gab	-10997
▁inj	-10998
▁Сек	-10999
▁вес	-11000
▁кур	-11001
▁сре	-11002
▁чер	-11003
-2003	-11004
baren	-11005
ichts	-11006
onnen	-11007
rimin	-11008
▁1980	-11009
▁Lage	-11010
▁Mind	-11011
▁MwSt	-11012
▁Prem	-11013
▁darf	-11014
▁flex	-11015
▁fran	-11016
▁jede	-11017
▁oben	-11018
▁till	-11019
▁vier	-11020
▁virt	-11021
▁wahr	-11022
▁zone	-11023
▁zwar	-11024
▁Цент	-11025
▁жерт	-11026
▁кого	-11027
▁мень	-11028
▁напо	-11029
▁отве	-11030
▁роди	-11031
▁тыся	-11032
▁улуч	-11033
▁учеб	-11034
以英语发言	-11035
active	-11036
allery	-11037
atalog	-11038
idency	-11039
illing	-11040
leicht	-11041
system	-11042
▁Elect	-11043
▁Krieg	-11044
▁Would	-11045
▁behav	-11046
▁delay	-11047
▁drawn	-11048
▁eight	-11049
▁optim	-11050
▁quiet	-11051
▁risks	-11052
▁spent	-11053
▁taste	-11054
▁долго	-11055
▁запре	-11056
▁знает	-11057
▁кризи	-11058
▁прове	-11059
atabase	-11060
istical	-11061
▁Budget	-11062
▁Deputy	-11063
▁Dienst	-11064
▁Excuse	-11065
▁Father	-11066
▁Nummer	-11067
▁dissem	-11068
▁finish	-11069
▁invent	-11070
▁kosten	-11071
▁master	-11072
▁output	-11073
▁perpet	-11074
▁surely	-11075
▁Всемир	-11076
▁здоров	-11077
ettbewer	-11078
▁Denmark	-11079
▁Kontakt	-11080
▁Prozent	-11081
▁Schweiz	-11082
▁details	-11083
▁holiday	-11084
▁planned	-11085
▁setting	-11086
▁threats	-11087
▁постано	-11088
▁принять	-11089
▁случаях	-11090
alifornia	-11091
▁Training	-11092
▁bathroom	-11093
▁befindet	-11094
▁disaster	-11095
▁occupied	-11096
▁welcomes	-11097
▁говорить	-11098
▁касается	-11099
▁обеспечи	-11100
▁поговори	-11101
▁принятия	-11102
▁Following	-11103
▁democracy	-11104
▁disappear	-11105
▁efficient	-11106
▁wonderful	-11107
▁изменения	-11108
▁Prevention	-11109
▁Sicherheit	-11110
▁commission	-11111
▁vielleicht	-11112
▁достижения	-11113
▁expenditure	-11114
▁represented	-11115
▁образования	-11116
▁jurisdiction	-11117
▁presentation	-11118
▁международной	-11119
▁международных	-11120
%)	-11121
-,	-11122
Be	-11123
CP	-11124
De	-11125
ba	-11126
rd	-11127
ИС	-11128
▁­	-11129
▁老	-11130
▁自	-11131
不到	-11132
与会	-11133
予以	-11134
以为	-11135
决策	-11136
出了	-11137
制裁	-11138
处于	-11139
当地	-11140
拉夫	-11141
数额	-11142
最终	-11143
有利	-11144
甚至	-11145
石油	-11146
科特	-11147
网站	-11148
补充	-11149
详细	-11150
900	-11151
def	-11152
ems	-11153
esh	-11154
fur	-11155
ihe	-11156
isa	-11157
гия	-11158
жды	-11159
лай	-11160
лая	-11161
мби	-11162
шее	-11163
ыре	-11164
▁62	-11165
▁66	-11166
▁75	-11167
▁Bi	-11168
▁Et	-11169
▁IP	-11170
▁Ug	-11171
▁cr	-11172
▁Ти	-11173
▁Ха	-11174
▁ге	-11175
▁оп	-11176
▁尽管	-11177
▁没有	-11178
国际法	-11179
更多的	-11180
的代表	-11181
索马里	-11182
====	-11183
auen	-11184
blog	-11185
hren	-11186
iana	-11187
ingu	-11188
rain	-11189
umin	-11190
вили	-11191
втра	-11192
коло	-11193
куда	-11194
ницы	-11195
рует	-11196
спек	-11197
ятно	-11198
▁***	-11199
▁Alt	-11200
▁Bal	-11201
▁Bew	-11202
▁Bür	-11203
▁Ens	-11204
▁Gab	-11205
▁Inf	-11206
▁Mat	-11207
▁Mig	-11208
▁Tro	-11209
▁bew	-11210
▁ign	-11211
▁pra	-11212
▁ваш	-11213
两性平等	-11214
儿童权利	-11215
后续行动	-11216
国际组织	-11217
民间社会	-11218
贸发会议	-11219
.2016	-11220
/2012	-11221
alien	-11222
amera	-11223
esten	-11224
ether	-11225
hnung	-11226
mosph	-11227
raint	-11228
riffe	-11229
льные	-11230
льный	-11231
форми	-11232
циали	-11233
▁1991	-11234
▁Dank	-11235
▁Fort	-11236
▁Führ	-11237
▁Shut	-11238
▁chap	-11239
▁flow	-11240
▁pray	-11241
▁raus	-11242
▁rund	-11243
▁schö	-11244
▁sick	-11245
▁ster	-11246
▁Боль	-11247
▁Мини	-11248
▁Фран	-11249
▁выше	-11250
▁недо	-11251
▁роль	-11252
achten	-11253
ailing	-11254
henden	-11255
icious	-11256
iction	-11257
ipping	-11258
urrent	-11259
usalem	-11260
weisen	-11261
▁Check	-11262
▁Chile	-11263
▁Fifth	-11264
▁Power	-11265
▁Sonnt	-11266
▁Swiss	-11267
▁analy	-11268
▁denke	-11269
▁influ	-11270
▁input	-11271
▁quant	-11272
▁sogar	-11273
▁south	-11274
▁unemp	-11275
▁Думаю	-11276
▁имени	-11277
▁слыша	-11278
▁техни	-11279
▁хочет	-11280
▁элект	-11281
▁安全理事会	-11282
ditions	-11283
▁Arabia	-11284
▁Dieser	-11285
▁Rwanda	-11286
▁Sloven	-11287
▁Wieder	-11288
▁causes	-11289
▁courts	-11290
▁degree	-11291
▁diplom	-11292
▁distin	-11293
▁easily	-11294
▁explos	-11295
▁fields	-11296
▁helped	-11297
▁looked	-11298
▁namely	-11299
▁option	-11300
▁prohib	-11301
▁sozial	-11302
▁street	-11303
▁Потому	-11304
▁второй	-11305
▁деньги	-11306
▁ноября	-11307
▁отмеча	-11308
▁сообщи	-11309
ancement	-11310
einander	-11311
strument	-11312
▁Chapter	-11313
▁anderer	-11314
▁chapter	-11315
▁despite	-11316
▁happens	-11317
▁surface	-11318
▁totally	-11319
▁trouble	-11320
▁которую	-11321
▁проекта	-11322
▁совмест	-11323
▁compared	-11324
▁emerging	-11325
▁instruct	-11326
▁networks	-11327
▁speaking	-11328
▁создания	-11329
ifications	-11330
▁Transport	-11331
▁breakfast	-11332
▁displaced	-11333
▁emergency	-11334
▁folgenden	-11335
▁технологи	-11336
▁Resolution	-11337
▁recognition	-11338
▁представить	-11339
▁предусматри	-11340
▁Headquarters	-11341
▁Unternehmens	-11342
▁increasingly	-11343
▁правительства	-11344
▁reconstruction	-11345
'.	-11346
93	-11347
AW	-11348
OU	-11349
TE	-11350
\/	-11351
ее	-11352
▁二	-11353
。”	-11354
不起	-11355
只要	-11356
塞尔	-11357
媒体	-11358
尼日	-11359
意大	-11360
成立	-11361
抱歉	-11362
根本	-11363
比利	-11364
生效	-11365
相当	-11366
答复	-11367
筹资	-11368
给你	-11369
维护	-11370
药物	-11371
让我	-11372
起诉	-11373
通信	-11374
遗憾	-11375
顾问	-11376
(3)	-11377
600	-11378
TER	-11379
ava	-11380
col	-11381
gle	-11382
hnt	-11383
lit	-11384
mod	-11385
orb	-11386
raf	-11387
rar	-11388
ses	-11389
tes	-11390
wie	-11391
xas	-11392
zuf	-11393
вор	-11394
джи	-11395
зор	-11396
лии	-11397
лый	-11398
нок	-11399
рко	-11400
тей	-11401
тек	-11402
тре	-11403
щим	-11404
ьер	-11405
▁46	-11406
▁::	-11407
▁CE	-11408
▁Gh	-11409
▁Po	-11410
▁ca	-11411
▁mg	-11412
▁Пи	-11413
▁第二	-11414
与发展	-11415
儿童的	-11416
ampf	-11417
cean	-11418
iges	-11419
lter	-11420
omet	-11421
oted	-11422
pack	-11423
soft	-11424
uras	-11425
uren	-11426
uses	-11427
völk	-11428
деля	-11429
нови	-11430
степ	-11431
▁120	-11432
▁250	-11433
▁28,	-11434
▁Dou	-11435
▁Hoc	-11436
▁Mov	-11437
▁Mäd	-11438
▁Ter	-11439
▁Tog	-11440
▁Tue	-11441
▁Zwe	-11442
▁eye	-11443
▁pet	-11444
▁rac	-11445
▁Вам	-11446
▁Или	-11447
▁спа	-11448
▁фон	-11449
▁юри	-11450
世界银行	-11451
优先事项	-11452
私营部门	-11453
attle	-11454
board	-11455
field	-11456
jekte	-11457
phone	-11458
rator	-11459
statt	-11460
zegov	-11461
лений	-11462
ствия	-11463
▁Lauf	-11464
▁Once	-11465
▁Sitz	-11466
▁Tanz	-11467
▁aren	-11468
▁gilt	-11469
▁höch	-11470
▁none	-11471
▁reve	-11472
▁wall	-11473
▁Упра	-11474
▁июля	-11475
民主共和国	-11476
ellent	-11477
itchen	-11478
orders	-11479
zeitig	-11480
ждений	-11481
ложить	-11482
сторон	-11483
▁2008.	-11484
▁Alles	-11485
▁Could	-11486
▁Domin	-11487
▁Gäste	-11488
▁Insel	-11489
▁Liter	-11490
▁Offic	-11491
▁Parte	-11492
▁Saint	-11493
▁Schla	-11494
▁Super	-11495
▁UNHCR	-11496
▁advoc	-11497
▁books	-11498
▁ersch	-11499
▁fault	-11500
▁gross	-11501
▁lässt	-11502
▁norms	-11503
▁signs	-11504
▁stake	-11505
▁Герма	-11506
▁Согла	-11507
▁добро	-11508
▁найти	-11509
▁собра	-11510
aurants	-11511
content	-11512
ography	-11513
verkehr	-11514
тельные	-11515
▁(2001)	-11516
▁Gesund	-11517
▁Island	-11518
▁Labour	-11519
▁Liefer	-11520
▁Länder	-11521
▁Noting	-11522
▁Robert	-11523
▁Wochen	-11524
▁attend	-11525
▁centre	-11526
▁comply	-11527
▁endors	-11528
▁extrem	-11529
▁forgot	-11530
▁kleine	-11531
▁nehmen	-11532
▁shared	-11533
▁strict	-11534
▁власти	-11535
▁одного	-11536
▁предпо	-11537
▁провер	-11538
zegovina	-11539
тельного	-11540
▁Airport	-11541
▁Nuclear	-11542
▁Philipp	-11543
▁Stunden	-11544
▁Weapons	-11545
▁attacks	-11546
▁consist	-11547
▁defined	-11548
▁earlier	-11549
▁engaged	-11550
▁growing	-11551
▁hearing	-11552
▁neither	-11553
▁spielen	-11554
ternehmen	-11555
wordpress	-11556
▁Dokument	-11557
▁Ergebnis	-11558
▁Position	-11559
▁Welcomes	-11560
▁campaign	-11561
▁constant	-11562
▁enhanced	-11563
▁extended	-11564
▁launched	-11565
▁numerous	-11566
▁reducing	-11567
▁somebody	-11568
▁withdraw	-11569
▁нравится	-11570
öffentlich	-11571
▁Paragraph	-11572
▁existence	-11573
▁expertise	-11574
▁intention	-11575
▁resulting	-11576
▁satellite	-11577
▁suffering	-11578
▁unterstüt	-11579
▁заседании	-11580
▁поддержки	-11581
▁containing	-11582
▁mainstream	-11583
▁maintained	-11584
▁результате	-11585
▁Bedingungen	-11586
▁consumption	-11587
▁declaration	-11588
▁registration	-11589
▁Председателя	-11590
81	-11591
Fi	-11592
不利	-11593
习班	-11594
仲裁	-11595
分别	-11596
分发	-11597
制造	-11598
劳工	-11599
南非	-11600
合理	-11601
同样	-11602
多样	-11603
子女	-11604
它的	-11605
实行	-11606
打算	-11607
损害	-11608
收集	-11609
效率	-11610
救济	-11611
明白	-11612
权的	-11613
正如	-11614
此类	-11615
满足	-11616
粮食	-11617
至少	-11618
记得	-11619
语言	-11620
通常	-11621
降低	-11622
-06	-11623
ANS	-11624
Ich	-11625
bec	-11626
eto	-11627
urb	-11628
you	-11629
öst	-11630
вут	-11631
деб	-11632
дит	-11633
ема	-11634
жим	-11635
кро	-11636
нец	-11637
рас	-11638
сон	-11639
чик	-11640
▁($	-11641
▁(0	-11642
▁72	-11643
▁77	-11644
▁99	-11645
▁Kn	-11646
▁Ol	-11647
▁SP	-11648
▁Лу	-11649
▁然后	-11650
可能会	-11651
意大利	-11652
的一些	-11653
的安全	-11654
的目标	-11655
而不是	-11656
这一点	-11657
这样的	-11658
0000	-11659
1990	-11660
buch	-11661
date	-11662
iken	-11663
iled	-11664
jähr	-11665
mail	-11666
ommy	-11667
oria	-11668
plan	-11669
quid	-11670
riff	-11671
roud	-11672
undi	-11673
unge	-11674
дует	-11675
исти	-11676
рази	-11677
риан	-11678
сами	-11679
стри	-11680
чены	-11681
▁12,	-11682
▁21,	-11683
▁Bah	-11684
▁DER	-11685
▁Dur	-11686
▁Ged	-11687
▁Gol	-11688
▁Hab	-11689
▁Mio	-11690
▁Que	-11691
▁Tab	-11692
▁ded	-11693
▁eig	-11694
▁muß	-11695
▁Сер	-11696
▁гру	-11697
▁имя	-11698
▁кла	-11699
▁кос	-11700
▁лег	-11701
▁поя	-11702
建设和平	-11703
所有国家	-11704
特别代表	-11705
/2005	-11706
/2017	-11707
elled	-11708
ideos	-11709
ioned	-11710
ombia	-11711
onial	-11712
organ	-11713
otion	-11714
rison	-11715
ublik	-11716
вании	-11717
рению	-11718
суаль	-11719
▁Berg	-11720
▁Camp	-11721
▁Dire	-11722
▁Fern	-11723
▁Kann	-11724
▁Mess	-11725
▁Nice	-11726
▁Star	-11727
▁Stay	-11728
▁Vene	-11729
▁Verm	-11730
▁Vict	-11731
▁Wien	-11732
▁feet	-11733
▁jewe	-11734
▁lady	-11735
▁obst	-11736
▁prol	-11737
▁Боже	-11738
▁Кана	-11739
▁Феде	-11740
▁акти	-11741
▁ассо	-11742
▁вами	-11743
▁жела	-11744
▁окон	-11745
▁поме	-11746
▁прош	-11747
▁служ	-11748
和平与安全	-11749
anning	-11750
enders	-11751
ritten	-11752
rolled	-11753
▁2015.	-11754
▁Calls	-11755
▁Found	-11756
▁Haiti	-11757
▁Louis	-11758
▁breat	-11759
▁ganze	-11760
▁names	-11761
▁owing	-11762
▁pages	-11763
▁verst	-11764
▁votes	-11765
▁warum	-11766
▁Änder	-11767
▁будем	-11768
▁всеоб	-11769
▁гаран	-11770
▁интер	-11771
▁кажды	-11772
▁люблю	-11773
▁нашей	-11774
▁ожида	-11775
▁оказы	-11776
▁поста	-11777
▁самом	-11778
▁содей	-11779
▁учиты	-11780
immobil	-11781
pflicht	-11782
ächlich	-11783
влением	-11784
▁Access	-11785
▁Daniel	-11786
▁Erzeug	-11787
▁Ferien	-11788
▁Gesamt	-11789
▁Jahres	-11790
▁Recogn	-11791
▁Sozial	-11792
▁bedeut	-11793
▁device	-11794
▁finanz	-11795
▁formal	-11796
▁hotels	-11797
▁liegen	-11798
▁prefer	-11799
▁solche	-11800
▁square	-11801
▁stable	-11802
▁temper	-11803
▁именно	-11804
▁конвен	-11805
▁начала	-11806
▁обязан	-11807
▁помочь	-11808
▁продук	-11809
▁разору	-11810
▁устано	-11811
▁Finland	-11812
▁Ländern	-11813
▁Michael	-11814
▁Project	-11815
▁Systems	-11816
▁Version	-11817
▁affairs	-11818
▁amended	-11819
▁federal	-11820
▁journal	-11821
▁officer	-11822
▁package	-11823
▁reinfor	-11824
▁thereof	-11825
▁иностра	-11826
▁обслужи	-11827
▁подписа	-11828
▁решений	-11829
▁стандар	-11830
völkerung	-11831
правитель	-11832
▁Congress	-11833
▁Optional	-11834
▁Research	-11835
▁Standard	-11836
▁believed	-11837
▁contains	-11838
▁criteria	-11839
▁entfernt	-11840
▁fighting	-11841
▁selected	-11842
▁southern	-11843
▁strongly	-11844
▁поддержи	-11845
▁получить	-11846
▁проектов	-11847
▁рассказа	-11848
▁Indonesia	-11849
▁Jerusalem	-11850
▁Therefore	-11851
▁certainly	-11852
▁committee	-11853
▁considers	-11854
▁emissions	-11855
▁exception	-11856
▁involving	-11857
▁worldwide	-11858
▁отношения	-11859
▁транспорт	-11860
▁Everything	-11861
▁Frankreich	-11862
▁Parlaments	-11863
▁encourages	-11864
▁occupation	-11865
▁проведения	-11866
▁Möglichkeit	-11867
▁competitive	-11868
▁elimination	-11869
▁perspective	-11870
▁subregional	-11871
▁предоставля	-11872
▁Organisation	-11873
▁constitutional	-11874
',	-11875
,”	-11876
.“	-11877
</	-11878
As	-11879
Ex	-11880
OW	-11881
eu	-11882
gr	-11883
sw	-11884
АН	-11885
▁以	-11886
▁到	-11887
▁见	-11888
▁這	-11889
主持	-11890
人在	-11891
加拉	-11892
化学	-11893
唯一	-11894
好吗	-11895
巴基	-11896
意义	-11897
拒绝	-11898
显然	-11899
死了	-11900
理解	-11901
示范	-11902
精神	-11903
语文	-11904
迪瓦	-11905
避免	-11906
重视	-11907
预期	-11908
750	-11909
800	-11910
chs	-11911
cow	-11912
eff	-11913
jen	-11914
sam	-11915
sie	-11916
wig	-11917
wür	-11918
езд	-11919
кса	-11920
ляр	-11921
шта	-11922
▁Cy	-11923
▁na	-11924
▁ru	-11925
▁ПР	-11926
▁回顾	-11927
▁这个	-11928
事规则	-11929
亲爱的	-11930
武器和	-11931
活动的	-11932
的一切	-11933
的合作	-11934
的承诺	-11935
的行为	-11936
行为的	-11937
讲习班	-11938
.12.	-11939
????	-11940
ales	-11941
atte	-11942
emen	-11943
fers	-11944
idge	-11945
ihen	-11946
isia	-11947
lass	-11948
mals	-11949
oler	-11950
oper	-11951
reet	-11952
rest	-11953
rägt	-11954
urer	-11955
ynam	-11956
änge	-11957
верг	-11958
даря	-11959
змом	-11960
тивы	-11961
тные	-11962
щему	-11963
▁Abs	-11964
▁Abu	-11965
▁Del	-11966
▁Fle	-11967
▁Gal	-11968
▁Jew	-11969
▁Ltd	-11970
▁Nav	-11971
▁Tem	-11972
▁VAT	-11973
▁Zuk	-11974
▁mix	-11975
▁nar	-11976
▁zus	-11977
▁Ком	-11978
▁Эти	-11979
▁две	-11980
▁кре	-11981
▁кру	-11982
▁наз	-11983
和联合国	-11984
巴基斯坦	-11985
执行情况	-11986
科特迪瓦	-11987
采取行动	-11988
after	-11989
dings	-11990
folgt	-11991
ifest	-11992
ugend	-11993
ville	-11994
äufig	-11995
десят	-11996
дется	-11997
зации	-11998
стров	-11999
щении	-12000
▁Auto	-12001
▁Both	-12002
▁Eink	-12003
▁Herz	-12004
▁Kong	-12005
▁Kopf	-12006
▁Kran	-12007
▁Viet	-12008
▁Wahr	-12009
▁Zent	-12010
▁band	-12011
▁cast	-12012
▁damn	-12013
▁erzä	-12014
▁fand	-12015
▁glad	-12016
▁pled	-12017
▁shop	-12018
▁stär	-12019
▁vess	-12020
▁дире	-12021
▁един	-12022
▁объя	-12023
▁сель	-12024
的执行情况	-12025
abhäng	-12026
iating	-12027
nissen	-12028
stance	-12029
umping	-12030
uständ	-12031
▁Haben	-12032
▁Hilfe	-12033
▁Leist	-12034
▁River	-12035
▁Sache	-12036
▁evalu	-12037
▁forum	-12038
▁frequ	-12039
▁liter	-12040
▁style	-12041
▁valid	-12042
▁verfü	-12043
▁weird	-12044
▁wirst	-12045
▁write	-12046
▁закры	-12047
▁имеют	-12048
▁испол	-12049
▁назна	-12050
▁стоит	-12051
▁требу	-12052
▁часть	-12053
itional	-12054
▁(00:03	-12055
▁Before	-12056
▁Beschl	-12057
▁Johann	-12058
▁Madrid	-12059
▁Mensch	-12060
▁Regist	-12061
▁School	-12062
▁Weiter	-12063
▁behand	-12064
▁choose	-12065
▁dachte	-12066
▁duties	-12067
▁fallen	-12068
▁famous	-12069
▁integr	-12070
▁judges	-12071
▁season	-12072
▁stellt	-12073
▁timely	-12074
▁wishes	-12075
▁вообще	-12076
▁пригла	-12077
ographic	-12078
········	-12079
хранения	-12080
▁Control	-12081
▁Romania	-12082
▁Sonntag	-12083
▁Subcomm	-12084
▁absence	-12085
▁anymore	-12086
▁bekannt	-12087
▁dealing	-12088
▁figures	-12089
▁reality	-12090
▁незакон	-12091
▁поэтому	-12092
▁протоко	-12093
▁Communic	-12094
▁Material	-12095
▁northern	-12096
▁outcomes	-12097
▁recorded	-12098
▁reviewed	-12099
▁servants	-12100
▁supports	-12101
▁независи	-12102
▁Breakfast	-12103
▁Mauritius	-12104
▁Something	-12105
▁concluded	-12106
▁destroyed	-12107
▁natürlich	-12108
▁specified	-12109
▁veröffent	-12110
schließlich	-12111
▁Azerbaijan	-12112
▁Yugoslavia	-12113
▁подготовки	-12114
▁conclusions	-12115
▁educational	-12116
▁interesting	-12117
proliferation	-12118
▁difficulties	-12119
▁disabilities	-12120
▁introduction	-12121
▁accommodation	-12122
▁осуществлению	-12123
07	-12124
08	-12125
Ab	-12126
DR	-12127
TO	-12128
UC	-12129
▁将	-12130
▁谁	-12131
从事	-12132
以期	-12133
决于	-12134
医生	-12135
反应	-12136
吁请	-12137
她们	-12138
工程	-12139
指南	-12140
显示	-12141
来越	-12142
核准	-12143
此种	-12144
私人	-12145
罗马	-12146
罪行	-12147
说的	-12148
货币	-12149
资本	-12150
起草	-12151
辩论	-12152
过渡	-12153
(2)	-12154
.18	-12155
/23	-12156
20%	-12157
ICH	-12158
ORD	-12159
des	-12160
how	-12161
len	-12162
mut	-12163
mäß	-12164
nam	-12165
zös	-12166
ärt	-12167
гно	-12168
ета	-12169
йся	-12170
нди	-12171
рев	-12172
▁(7	-12173
▁89	-12174
▁96	-12175
▁Ho	-12176
▁Mm	-12177
▁TR	-12178
▁pp	-12179
▁ны	-12180
▁ум	-12181
▁会议	-12182
全球化	-12183
取决于	-12184
在一起	-12185
尼西亚	-12186
提交人	-12187
比利时	-12188
的要求	-12189
越来越	-12190
anne	-12191
free	-12192
fäng	-12193
news	-12194
orie	-12195
uert	-12196
äuft	-12197
лети	-12198
муще	-12199
преж	-12200
тный	-12201
▁(6)	-12202
▁101	-12203
▁802	-12204
▁Adv	-12205
▁Brü	-12206
▁Frü	-12207
▁Got	-12208
▁Ide	-12209
▁Jam	-12210
▁Mir	-12211
▁Old	-12212
▁Tob	-12213
▁Zum	-12214
▁cat	-12215
▁fle	-12216
▁fro	-12217
▁har	-12218
▁mil	-12219
▁pil	-12220
▁van	-12221
▁wed	-12222
▁Всё	-12223
▁Доб	-12224
▁Рас	-12225
▁Тур	-12226
▁всю	-12227
▁млн	-12228
▁мои	-12229
▁оно	-12230
▁сла	-12231
▁如果你	-12232
人口基金	-12233
anten	-12234
enses	-12235
gling	-12236
ießen	-12237
ighte	-12238
itage	-12239
markt	-12240
ounds	-12241
oured	-12242
platz	-12243
rolle	-12244
teile	-12245
дации	-12246
лично	-12247
тации	-12248
▁(201	-12249
▁Anze	-12250
▁Beih	-12251
▁Bern	-12252
▁Dopp	-12253
▁Gebä	-12254
▁Gren	-12255
▁Prin	-12256
▁Year	-12257
▁bill	-12258
▁club	-12259
▁code	-12260
▁erne	-12261
▁furn	-12262
▁gain	-12263
▁join	-12264
▁laid	-12265
▁roll	-12266
▁seat	-12267
▁stim	-12268
▁trip	-12269
▁zahl	-12270
▁апре	-12271
▁вещи	-12272
▁всей	-12273
▁гото	-12274
▁деву	-12275
▁дене	-12276
▁дней	-12277
▁доба	-12278
▁инте	-12279
▁назы	-12280
▁срав	-12281
▁стре	-12282
▁请秘书长	-12283
asters	-12284
bracht	-12285
genden	-12286
ichter	-12287
ilität	-12288
inding	-12289
iverse	-12290
lungen	-12291
ordnet	-12292
öffnet	-12293
влению	-12294
▁*****	-12295
▁Croat	-12296
▁Kyoto	-12297
▁Model	-12298
▁Reaff	-12299
▁Rolle	-12300
▁Schul	-12301
▁Tages	-12302
▁UNFPA	-12303
▁Unser	-12304
▁Views	-12305
▁Weise	-12306
▁forty	-12307
▁fresh	-12308
▁green	-12309
▁heads	-12310
▁homes	-12311
▁lived	-12312
▁pregn	-12313
▁proof	-12314
▁sixty	-12315
▁Скажи	-12316
▁глаза	-12317
▁годов	-12318
▁город	-12319
▁источ	-12320
▁объяс	-12321
▁одним	-12322
▁подро	-12323
▁разме	-12324
▁совет	-12325
▁форма	-12326
世界首脑会议	-12327
bildung	-12328
ierungs	-12329
rations	-12330
richten	-12331
standen	-12332
ungsver	-12333
▁Luxemb	-12334
▁Master	-12335
▁Should	-12336
▁Uganda	-12337
▁besten	-12338
▁broken	-12339
▁commod	-12340
▁condem	-12341
▁donors	-12342
▁gather	-12343
▁geeign	-12344
▁hinaus	-12345
▁honour	-12346
▁length	-12347
▁secure	-12348
▁served	-12349
▁vision	-12350
▁Ничего	-12351
ственные	-12352
▁Charlie	-12353
▁Decides	-12354
▁Monitor	-12355
▁Ordnung	-12356
▁Society	-12357
▁Staaten	-12358
▁	-12359
e	-12360
t	-12361
n	-12362
i	-12363
a	-12364
o	-12365
r	-12366
s	-12367
h	-12368
l	-12369
d	-12370
u	-12371
c	-12372
m	-12373
о	-12374
.	-12375
g	-12376
f	-12377
,	-12378
е	-12379
p	-12380
а	-12381
и	-12382
н	-12383
т	-12384
w	-12385
b	-12386
y	-12387
с	-12388
р	-12389
v	-12390
в	-12391
л	-12392
0	-12393
k	-12394
м	-12395
1	-12396
д	-12397
к	-12398
2	-12399
-	-12400
п	-12401
I	-12402
у	-12403
S	-12404
A	-12405
я	-12406
ы	-12407
T	-12408
的	-12409
ь	-12410
C	-12411
z	-12412
б	-12413
г	-12414
з	-12415
/	-12416
'	-12417
M	-12418
:	-12419
D	-12420
)	-12421
E	-12422
ч	-12423
?	-12424
(	-12425
3	-12426
P	-12427
й	-12428
5	-12429
W	-12430
9	-12431
4	-12432
N	-12433
B	-12434
R	-12435
G	-12436
H	-12437
ж	-12438
6	-12439
х	-12440
F	-12441
7	-12442
。	-12443
L	-12444
8	-12445
x	-12446
O	-12447
U	-12448
ю	-12449
ü	-12450
和	-12451
ц	-12452
ä	-12453
ш	-12454
!	-12455
j	-12456
国	-12457
会	-12458
"	-12459
K	-12460
在	-12461
我	-12462
V	-12463
一	-12464
щ	-12465
是	-12466
J	-12467
;	-12468
Y	-12469
有	-12470
q	-12471
、	-12472
人	-12473
了	-12474
不	-12475
э	-12476
议	-12477
*	-12478
ö	-12479
这	-12480
你	-12481
行	-12482
为	-12483
П	-12484
С	-12485
ф	-12486
О	-12487
Н	-12488
以	-12489
员	-12490
们	-12491
他	-12492
К	-12493
作	-12494
年	-12495
В	-12496
法	-12497
第	-12498
要	-12499
Z	-12500
合	-12501
发	-12502
个	-12503
中	-12504
对	-12505
М	-12506
方	-12507
定	-12508
关	-12509
其	-12510
于	-12511
ß	-12512
家	-12513
Т	-12514
“	-12515
事	-12516
А	-12517
Д	-12518
到	-12519
所	-12520
提	-12521
大	-12522
联	-12523
能	-12524
出	-12525
可	-12526
进	-12527
地	-12528
=	-12529
来	-12530
И	-12531
”	-12532
理	-12533
主	-12534
政	-12535
动	-12536
决	-12537
成	-12538
Я	-12539
委	-12540
组	-12541
用	-12542
利	-12543
权	-12544
及	-12545
生	-12546
工	-12547
加	-12548
上	-12549
全	-12550
问	-12551
展	-12552
日	-12553
并	-12554
过	-12555
%	-12556
约	-12557
特	-12558
与	-12559
题	-12560
经	-12561
部	-12562
Р	-12563
公	-12564
些	-12565
应	-12566
表	-12567
月	-12568
时	-12569
际	-12570
各	-12571
力	-12572
保	-12573
制	-12574
报	-12575
得	-12576
分	-12577
就	-12578
]	-12579
面	-12580
告	-12581
《	-12582
》	-12583
案	-12584
重	-12585
下	-12586
[	-12587
机	-12588
项	-12589
将	-12590
Б	-12591
性	-12592
实	-12593
Г	-12594
务	-12595
多	-12596
意	-12597
Э	-12598
—	-12599
安	-12600
斯	-12601
民	-12602
非	-12603
而	-12604
同	-12605
目	-12606
别	-12607
_	-12608
资	-12609
建	-12610
现	-12611
么	-12612
该	-12613
那	-12614
#	-12615
本	-12616
任	-12617
助	-12618
开	-12619
间	-12620
+	-12621
后	-12622
长	-12623
书	-12624
ё	-12625
好	-12626
条	-12627
持	-12628
或	-12629
通	-12630
立	-12631
期	-12632
区	-12633
亚	-12634
内	-12635
说	-12636
还	-12637
种	-12638
自	-12639
女	-12640
织	-12641
没	-12642
如	-12643
基	-12644
供	-12645
当	-12646
Е	-12647
之	-12648
此	-12649
情	-12650
»	-12651
文	-12652
–	-12653
道	-12654
体	-12655
取	-12656
平	-12657
使	-12658
也	-12659
者	-12660
代	-12661
最	-12662
规	-12663
社	-12664
因	-12665
协	-12666
正	-12667
外	-12668
У	-12669
信	-12670
’	-12671
件	-12672
前	-12673
>	-12674
确	-12675
拉	-12676
里	-12677
处	-12678
明	-12679
计	-12680
都	-12681
程	-12682
受	-12683
构	-12684
€	-12685
强	-12686
调	-12687
但	-12688
金	-12689
«	-12690
据	-12691
支	-12692
认	-12693
府	-12694
果	-12695
续	-12696
次	-12697
施	-12698
由	-12699
况	-12700
包	-12701
子	-12702
新	-12703
系	-12704
Ч	-12705
设	-12706
号	-12707
З	-12708
先	-12709
团	-12710
美	-12711
知	-12712
尔	-12713
活	-12714
Л	-12715
已	-12716
执	-12717
小	-12718
去	-12719
域	-12720
请	-12721
什	-12722
儿	-12723
共	-12724
它	-12725
Q	-12726
审	-12727
义	-12728
想	-12729
必	-12730
度	-12731
括	-12732
秘	-12733
然	-12734
巴	-12735
&	-12736
领	-12737
样	-12738
管	-12739
业	-12740
向	-12741
交	-12742
ъ	-12743
化	-12744
解	-12745
X	-12746
数	-12747
克	-12748
准	-12749
更	-12750
需	-12751
高	-12752
指	-12753
等	-12754
洲	-12755
入	-12756
吗	-12757
求	-12758
心	-12759
很	-12760
起	-12761
产	-12762
被	-12763
见	-12764
济	-12765
统	-12766
比	-12767
相	-12768
论	-12769
采	-12770
十	-12771
结	-12772
标	-12773
·	-12774
言	-12775
她	-12776
点	-12777
查	-12778
做	-12779
何	-12780
看	-12781
办	-12782
西	-12783
$	-12784
世	-12785
界	-12786
注	-12787
学	-12788
预	-12789
则	-12790
根	-12791
达	-12792
专	-12793
举	-12794
从	-12795
名	-12796
给	-12797
段	-12798
Ф	-12799
只	-12800
列	-12801
妇	-12802
无	-12803
阿	-12804
Х	-12805
真	-12806
境	-12807
常	-12808
教	-12809
划	-12810
参	-12811
童	-12812
至	-12813
二	-12814
式	-12815
效	-12816
物	-12817
律	-12818
战	-12819
三	-12820
尼	-12821
措	-12822
天	-12823
护	-12824
两	-12825
席	-12826
款	-12827
缔	-12828
增	-12829
源	-12830
回	-12831
改	-12832
反	-12833
须	-12834
少	-12835
科	-12836
届	-12837
接	-12838
促	-12839
武	-12840
除	-12841
着	-12842
让	-12843
术	-12844
级	-12845
切	-12846
吧	-12847
总	-12848
核	-12849
治	-12850
害	-12851
技	-12852
维	-12853
门	-12854
马	-12855
原	-12856
商	-12857
证	-12858
继	-12859
责	-12860
土	-12861
算	-12862
草	-12863
位	-12864
布	-12865
未	-12866
Ш	-12867
收	-12868
费	-12869
服	-12870
é	-12871
具	-12872
口	-12873
示	-12874
量	-12875
承	-12876
伊	-12877
止	-12878
兰	-12879
努	-12880
运	-12881
°	-12882
欧	-12883
犯	-12884
备	-12885
器	-12886
策	-12887
影	-12888
类	-12889
易	-12890
步	-12891
难	-12892
們	-12893
导	-12894
局	-12895
且	-12896
罪	-12897
视	-12898
司	-12899
德	-12900
„	-12901
援	-12902
记	-12903
适	-12904
再	-12905
许	-12906
选	-12907
<	-12908
职	-12909
Ü	-12910
今	-12911
罗	-12912
响	-12913
球	-12914
把	-12915
元	-12916
军	-12917
诉	-12918
东	-12919
署	-12920
份	-12921
例	-12922
变	-12923
打	-12924
庭	-12925
获	-12926
识	-12927
额	-12928
照	-12929
评	-12930
防	-12931
场	-12932
话	-12933
复	-12934
海	-12935
派	-12936
便	-12937
息	-12938
宣	-12939
干	-12940
盟	-12941
放	-12942
减	-12943
坦	-12944
感	-12945
南	-12946
致	-12947
官	-12948
单	-12949
手	-12950
病	-12951
研	-12952
订	-12953
消	-12954
环	-12955
每	-12956
财	-12957
限	-12958
四	-12959
五	-12960
怎	-12961
集	-12962
士	-12963
首	-12964
族	-12965
考	-12966
监	-12967
纳	-12968
候	-12969
转	-12970
院	-12971
够	-12972
突	-12973
即	-12974
哥	-12975
料	-12976
直	-12977
育	-12978
品	-12979
啊	-12980
队	-12981
失	-12982
贸	-12983
完	-12984
流	-12985
讨	-12986
♪	-12987
充	-12988
太	-12989
察	-12990
究	-12991
恐	-12992
担	-12993
争	-12994
勒	-12995
存	-12996
格	-12997
电	-12998
塞	-12999
望	-13000
范	-13001
造	-13002
附	-13003
否	-13004
希	-13005
近	-13006
欢	-13007
裁	-13008
谈	-13009
卫	-13010
尽	-13011
按	-13012
水	-13013
估	-13014
极	-13015
死	-13016
空	-13017
虑	-13018
身	-13019
判	-13020
谢	-13021
威	-13022
快	-13023
申	-13024
离	-13025
传	-13026
边	-13027
述	-13028
刑	-13029
质	-13030
听	-13031
愿	-13032
架	-13033
略	-13034
走	-13035
始	-13036
训	-13037
编	-13038
索	-13039
•	-13040
几	-13041
益	-13042
爱	-13043
依	-13044
市	-13045
投	-13046
击	-13047
帮	-13048
色	-13049
老	-13050
付	-13051
冲	-13052
观	-13053
伙	-13054
á	-13055
危	-13056
艾	-13057
序	-13058
诺	-13059
率	-13060
留	-13061
另	-13062
怖	-13063
室	-13064
排	-13065
瓦	-13066
语	-13067
六	-13068
Ä	-13069
住	-13070
警	-13071
严	-13072
整	-13073
己	-13074
伯	-13075
才	-13076
装	-13077
负	-13078
呢	-13079
星	-13080
网	-13081
补	-13082
带	-13083
拿	-13084
价	-13085
妈	-13086
修	-13087
孩	-13088
顾	-13089
气	-13090
印	-13091
容	-13092
班	-13093
待	-13094
­	-13095
录	-13096
Ю	-13097
又	-13098
扩	-13099
测	-13100
章	-13101
险	-13102
形	-13103
找	-13104
林	-13105
哪	-13106
围	-13107
框	-13108
独	-13109
命	-13110
控	-13111
础	-13112
融	-13113
Ц	-13114
仍	-13115
歧	-13116
涉	-13117
移	-13118
Ð	-13119
临	-13120
清	-13121
像	-13122
令	-13123
象	-13124
足	-13125
跟	-13126
万	-13127
伴	-13128
培	-13129
普	-13130
势	-13131
路	-13132
予	-13133
咨	-13134
健	-13135
占	-13136
富	-13137
滋	-13138
询	-13139
拟	-13140
男	-13141
声	-13142
夫	-13143
推	-13144
毒	-13145
杀	-13146
哈	-13147
迎	-13148
批	-13149
仅	-13150
越	-13151
某	-13152
禁	-13153
俄	-13154
托	-13155
群	-13156
暴	-13157
赞	-13158
载	-13159
鼓	-13160
刚	-13161
卡	-13162
善	-13163
著	-13164
债	-13165
引	-13166
般	-13167
车	-13168
革	-13169
优	-13170
低	-13171
农	-13172
图	-13173
广	-13174
筹	-13175
错	-13176
众	-13177
头	-13178
显	-13179
雷	-13180
医	-13181
密	-13182
萨	-13183
這	-13184
侵	-13185
功	-13186
紧	-13187
营	-13188
私	-13189
配	-13190
励	-13191
居	-13192
救	-13193
贫	-13194
尤	-13195
英	-13196
障	-13197
洛	-13198
脑	-13199
速	-13200
亲	-13201
觉	-13202
银	-13203
缺	-13204
享	-13205
宪	-13206
散	-13207
迪	-13208
吁	-13209
往	-13210
宗	-13211
属	-13212
满	-13213
验	-13214
\	-13215
Ж	-13216
值	-13217
偿	-13218
劳	-13219
早	-13220
白	-13221
互	-13222
吉	-13223
牙	-13224
千	-13225
履	-13226
束	-13227
积	-13228
谁	-13229
波	-13230
写	-13231
呼	-13232
签	-13233
守	-13234
挑	-13235
检	-13236
爸	-13237
赔	-13238
丹	-13239
急	-13240
捐	-13241
素	-13242
绝	-13243
节	-13244
风	-13245
型	-13246
困	-13247
思	-13248
状	-13249
邦	-13250
‘	-13251
喜	-13252
字	-13253
破	-13254
轻	-13255
随	-13256
食	-13257
北	-13258
古	-13259
尊	-13260
差	-13261
疾	-13262
终	-13263
药	-13264
违	-13265
介	-13266
周	-13267
模	-13268
简	-13269
较	-13270
Ã	-13271
久	-13272
免	-13273
塔	-13274
岛	-13275
米	-13276
坚	-13277
曾	-13278
试	-13279
七	-13280
称	-13281
稳	-13282
远	-13283
初	-13284
断	-13285
贝	-13286
迫	-13287
遵	-13288
兴	-13289
奥	-13290
晚	-13291
王	-13292
讲	-13293
降	-13294
历	-13295
康	-13296
择	-13297
苏	-13298
贩	-13299
超	-13300
@	-13301
层	-13302
油	-13303
深	-13304
答	-13305
细	-13306
伤	-13307
哦	-13308
森	-13309
洋	-13310
钱	-13311
养	-13312
埃	-13313
底	-13314
挥	-13315
沙	-13316
灾	-13317
神	-13318
针	-13319
Ö	-13320
乌	-13321
习	-13322
企	-13323
友	-13324
坛	-13325
概	-13326
火	-13327
释	-13328
络	-13329
⁄	-13330
叫	-13331
户	-13332
督	-13333
货	-13334
黎	-13335
创	-13336
态	-13337
肯	-13338
残	-13339
登	-13340
票	-13341
绍	-13342
胁	-13343
均	-13344
置	-13345
闻	-13346
驻	-13347
è	-13348
午	-13349
授	-13350
穷	-13351
吃	-13352
婚	-13353
瑞	-13354
线	-13355
`	-13356
房	-13357
泛	-13358
若	-13359
落	-13360
购	-13361
双	-13362
圣	-13363
损	-13364
百	-13365
纲	-13366
黑	-13367
石	-13368
站	-13369
符	-13370
遗	-13371
個	-13372
卖	-13373
旅	-13374
汇	-13375
虽	-13376
阶	-13377
帝	-13378
旨	-13379
朗	-13380
假	-13381
摩	-13382
疑	-13383
疗	-13384
精	-13385
遭	-13386
弱	-13387
换	-13388
校	-13389
汗	-13390
遍	-13391
弹	-13392
í	-13393
福	-13394
送	-13395
倡	-13396
副	-13397
坏	-13398
析	-13399
碍	-13400
遇	-13401
}	-13402
乎	-13403
停	-13404
张	-13405
纪	-13406
透	-13407
鲁	-13408
卢	-13409
城	-13410
姆	-13411
父	-13412
竞	-13413
访	-13414
九	-13415
八	-13416
岁	-13417
库	-13418
播	-13419
母	-13420
综	-13421
逐	-13422
飞	-13423
{	-13424
Ñ	-13425
射	-13426
故	-13427
麼	-13428
Ç	-13429
ó	-13430
买	-13431
似	-13432
师	-13433
敦	-13434
會	-13435
村	-13436
蒙	-13437
输	-13438
辩	-13439
亡	-13440
念	-13441
說	-13442
销	-13443
乐	-13444
召	-13445
恢	-13446
词	-13447
党	-13448
史	-13449
嗎	-13450
志	-13451
毁	-13452
耳	-13453
Й	-13454
亿	-13455
余	-13456
來	-13457
材	-13458
枪	-13459
献	-13460
脱	-13461
返	-13462
伦	-13463
升	-13464
却	-13465
叙	-13466
寻	-13467
罚	-13468
避	-13469
鉴	-13470
麦	-13471
毛	-13472
游	-13473
股	-13474
船	-13475
键	-13476
雇	-13477
客	-13478
拥	-13479
映	-13480
染	-13481
航	-13482
麻	-13483
厅	-13484
恩	-13485
恶	-13486
玩	-13487
败	-13488
退	-13489
邀	-13490
酷	-13491
隆	-13492
à	-13493
奇	-13494
延	-13495
征	-13496
拜	-13497
替	-13498
殖	-13499
為	-13500
~	-13501
ÿ	-13502
典	-13503
尚	-13504
炸	-13505
背	-13506
角	-13507
赏	-13508
音	-13509
借	-13510
弃	-13511
永	-13512
遣	-13513
陆	-13514
斗	-13515
杂	-13516
沃	-13517
渡	-13518
良	-13519
苦	-13520
蛋	-13521
途	-13522
靠	-13523
乏	-13524
练	-13525
莱	-13526
―	-13527
′	-13528
冷	-13529
削	-13530
吸	-13531
嫩	-13532
探	-13533
景	-13534
朋	-13535
片	-13536
贷	-13537
闭	-13538
顿	-13539
休	-13540
掉	-13541
演	-13542
盖	-13543
粮	-13544
莫	-13545
详	-13546
贡	-13547
丁	-13548
册	-13549
剥	-13550
半	-13551
州	-13552
幸	-13553
税	-13554
跨	-13555
归	-13556
忍	-13557
忘	-13558
怕	-13559
您	-13560
撤	-13561
沒	-13562
端	-13563
诸	-13564
阻	-13565
青	-13566
ñ	-13567
允	-13568
光	-13569
厄	-13570
台	-13571
废	-13572
殊	-13573
瓜	-13574
甚	-13575
兹	-13576
坐	-13577
捕	-13578
毫	-13579
渔	-13580
澳	-13581
绩	-13582
贴	-13583
迅	-13584
页	-13585
京	-13586
仇	-13587
墨	-13588
山	-13589
怪	-13590
拨	-13591
既	-13592
痛	-13593
菲	-13594
衡	-13595
踪	-13596
连	-13597
É	-13598
́	-13599
博	-13600
嘛	-13601
嘿	-13602
對	-13603
抱	-13604
热	-13605
爆	-13606
纽	-13607
追	-13608
š	-13609
仰	-13610
佳	-13611
味	-13612
售	-13613
怀	-13614
拒	-13615
智	-13616
泰	-13617
灭	-13618
花	-13619
荷	-13620
抗	-13621
摊	-13622
撒	-13623
曼	-13624
潜	-13625
短	-13626
迟	-13627
龄	-13628
兵	-13629
夺	-13630
媒	-13631
暂	-13632
祝	-13633
籍	-13634
耶	-13635
距	-13636
嗯	-13637
径	-13638
旦	-13639
污	-13640
汶	-13641
穿	-13642
舞	-13643
静	-13644
ô	-13645
丽	-13646
樣	-13647
河	-13648
灵	-13649
烈	-13650
版	-13651
触	-13652
谨	-13653
钟	-13654
鱼	-13655
储	-13656
压	-13657
宝	-13658
巨	-13659
币	-13660
笑	-13661
课	-13662
骤	-13663
呀	-13664
弗	-13665
彻	-13666
憾	-13667
抓	-13668
穆	-13669
剧	-13670
啦	-13671
幅	-13672
拘	-13673
杜	-13674
杰	-13675
歉	-13676
當	-13677
莉	-13678
谅	-13679
赖	-13680
跑	-13681
過	-13682
â	-13683
仲	-13684
净	-13685
刻	-13686
含	-13687
姐	-13688
弟	-13689
悲	-13690
搞	-13691
敬	-13692
温	-13693
港	-13694
睡	-13695
缩	-13696
腐	-13697
误	-13698
账	-13699
阁	-13700
¶	-13701
「	-13702
」	-13703
凯	-13704
卷	-13705
唯	-13706
後	-13707
桑	-13708
狱	-13709
读	-13710
赋	-13711
趣	-13712
辖	-13713
逃	-13714
酌	-13715
酒	-13716
醒	-13717
顺	-13718
偷	-13719
华	-13720
固	-13721
將	-13722
徙	-13723
應	-13724
截	-13725
挪	-13726
時	-13727
木	-13728
洗	-13729
混	-13730
激	-13731
眼	-13732
給	-13733
缴	-13734
薪	-13735
袭	-13736
谋	-13737
贵	-13738
跳	-13739
镇	-13740
ç	-13741
・	-13742
喝	-13743
套	-13744
季	-13745
攻	-13746
敌	-13747
於	-13748
旺	-13749
朝	-13750
棒	-13751
狗	-13752
蒂	-13753
鬼	-13754
μ	-13755
启	-13756
园	-13757
央	-13758
妨	-13759
异	-13760
微	-13761
押	-13762
毕	-13763
漠	-13764
玛	-13765
省	-13766
脆	-13767
血	-13768
裔	-13769
裡	-13770
Ы	-13771
忙	-13772
昂	-13773
楚	-13774
津	-13775
翻	-13776
街	-13777
迄	-13778
零	-13779
Ó	-13780
Ь	-13781
噢	-13782
宾	-13783
封	-13784
扬	-13785
抵	-13786
操	-13787
末	-13788
胜	-13789
藏	-13790
赫	-13791
¤	-13792
©	-13793
®	-13794
ø	-13795
ā	-13796
乱	-13797
兄	-13798
冻	-13799
函	-13800
卜	-13801
右	-13802
幕	-13803
彼	-13804
疯	-13805
磋	-13806
衣	-13807
誓	-13808
译	-13809
趋	-13810
迹	-13811
餐	-13812
Â	-13813
兼	-13814
堡	-13815
奉	-13816
妻	-13817
娜	-13818
宁	-13819
屿	-13820
座	-13821
惊	-13822
戈	-13823
拖	-13824
暗	-13825
沿	-13826
竟	-13827
荒	-13828
謝	-13829
贯	-13830
赛	-13831
邻	-13832
韦	-13833
颁	-13834
å	-13835
倒	-13836
孕	-13837
左	-13838
惠	-13839
惩	-13840
昨	-13841
礼	-13842
荣	-13843
讯	-13844
還	-13845
î	-13846
乔	-13847
倍	-13848
圭	-13849
廷	-13850
恰	-13851
梅	-13852
涵	-13853
發	-13854
碰	-13855
缅	-13856
缓	-13857
翰	-13858
聚	-13859
芬	-13860
轮	-13861
迈	-13862
递	-13863
露	-13864
颠	-13865
驱	-13866
Ú	-13867
ο	-13868
‚	-13869
嗨	-13870
嘴	-13871
姻	-13872
庇	-13873
弄	-13874
懂	-13875
戏	-13876
掌	-13877
杯	-13878
欠	-13879
欲	-13880
無	-13881
確	-13882
稿	-13883
虐	-13884
話	-13885
讼	-13886
谓	-13887
迷	-13888
隔	-13889
饭	-13890
ã	-13891
̧	-13892
伐	-13893
喂	-13894
圆	-13895
奴	-13896
孟	-13897
屋	-13898
帕	-13899
扎	-13900
扰	-13901
招	-13902
甸	-13903
皮	-13904
萄	-13905
葡	-13906
谴	-13907
開	-13908
阵	-13909
陷	-13910
饿	-13911
香	-13912
魔	-13913
鲜	-13914
丝	-13915
丢	-13916
丧	-13917
凡	-13918
勤	-13919
句	-13920
呃	-13921
喀	-13922
块	-13923
填	-13924
奖	-13925
恤	-13926
惯	-13927
戴	-13928
扫	-13929
敢	-13930
梦	-13931
欣	-13932
歌	-13933
烦	-13934
現	-13935
皇	-13936
祖	-13937
聘	-13938
胡	-13939
诚	-13940
龙	-13941
č	-13942
冰	-13943
別	-13944
剩	-13945
巧	-13946
循	-13947
慢	-13948
撞	-13949
桌	-13950
氧	-13951
犹	-13952
症	-13953
笨	-13954
红	-13955
耗	-13956
聊	-13957
脚	-13958
艺	-13959
董	-13960
裂	-13961
辅	-13962
隐	-13963
Ќ	-13964
乍	-13965
侧	-13966
俗	-13967
剂	-13968
吓	-13969
坡	-13970
堂	-13971
帐	-13972
恨	-13973
拍	-13974
敏	-13975
松	-13976
湖	-13977
燃	-13978
猜	-13979
碳	-13980
租	-13981
纸	-13982
認	-13983
辐	-13984
辱	-13985
逮	-13986
铭	-13987
陶	-13988
	-13989
ž	-13990
亮	-13991
兒	-13992
吨	-13993
夜	-13994
奶	-13995
宜	-13996
岸	-13997
店	-13998
慈	-13999
植	-14000
汉	-14001
沉	-14002
浦	-14003
浪	-14004
滚	-14005
疆	-14006
秩	-14007
艰	-14008
見	-14009
赶	-14010
野	-14011
韩	-14012
饮	-14013
佩	-14014
址	-14015
娘	-14016
婆	-14017
忆	-14018
忽	-14019
患	-14020
惨	-14021
摆	-14022
树	-14023
楼	-14024
浓	-14025
滥	-14026
灯	-14027
烟	-14028
狂	-14029
玻	-14030
眾	-14031
碎	-14032
絕	-14033
腊	-14034
臭	-14035
誰	-14036
讓	-14037
赢	-14038
辆	-14039
遥	-14040
酬	-14041
陈	-14042
骗	-14043
默	-14044
ï	-14045
ć	-14046
ա	-14047
丈	-14048
伍	-14049
偏	-14050
券	-14051
厂	-14052
奸	-14053
尸	-14054
役	-14055
振	-14056
捷	-14057
描	-14058
摘	-14059
撰	-14060
档	-14061
汽	-14062
淫	-14063
画	-14064
畏	-14065
糕	-14066
經	-14067
肉	-14068
親	-14069
逆	-14070
阐	-14071
馆	-14072
點	-14073
	-14074
§	-14075
ë	-14076
ぃ	-14077
並	-14078
勃	-14079
妥	-14080
妮	-14081
妹	-14082
婴	-14083
宽	-14084
屁	-14085
崇	-14086
巩	-14087
床	-14088
徒	-14089
扣	-14090
折	-14091
抢	-14092
挂	-14093
握	-14094
曲	-14095
氟	-14096
漂	-14097
炮	-14098
盘	-14099
盾	-14100
糟	-14101
累	-14102
繁	-14103
纠	-14104
缘	-14105
胎	-14106
谷	-14107
辛	-14108
辞	-14109
難	-14110
ê	-14111
ќ	-14112
仔	-14113
倾	-14114
冈	-14115
刊	-14116
咱	-14117
妳	-14118
姓	-14119
孤	-14120
宛	-14121
岗	-14122
崩	-14123
庆	-14124
忧	-14125
戒	-14126
抚	-14127
渐	-14128
湿	-14129
牛	-14130
笔	-14131
绑	-14132
绳	-14133
脸	-14134
莎	-14135
诊	-14136
贺	-14137
锁	-14138
阅	-14139
陪	-14140
雅	-14141
饥	-14142
ò	-14143
劫	-14144
吻	-14145
喔	-14146
墙	-14147
夏	-14148
嫌	-14149
實	-14150
尾	-14151
從	-14152
抽	-14153
挺	-14154
捞	-14155
旧	-14156
板	-14157
爵	-14158
琌	-14159
疫	-14160
盲	-14161
码	-14162
胞	-14163
茨	-14164
虫	-14165
蠢	-14166
诞	-14167
贾	-14168
赤	-14169
践	-14170
软	-14171
迁	-14172
阳	-14173
鸟	-14174
鸡	-14175
黄	-14176
齐	-14177
ð	-14178
Š	-14179
乳	-14180
佛	-14181
僵	-14182
刺	-14183
割	-14184
匈	-14185
厌	-14186
吵	-14187
哭	-14188
唱	-14189
啥	-14190
壤	-14191
妙	-14192
宏	-14193
悉	-14194
惑	-14195
摧	-14196
春	-14197
柬	-14198
汤	-14199
泊	-14200
泽	-14201
渠	-14202
澄	-14203
稍	-14204
種	-14205
箱	-14206
耐	-14207
與	-14208
覆	-14209
覺	-14210
許	-14211
轰	-14212
¬	-14213
ú	-14214
Щ	-14215
ј	-14216
伟	-14217
刀	-14218
删	-14219
募	-14220
契	-14221
寄	-14222
屠	-14223
峰	-14224
庄	-14225
恋	-14226
惧	-14227
搜	-14228
旗	-14229
旱	-14230
洁	-14231
洪	-14232
爾	-14233
牵	-14234
瑟	-14235
筑	-14236
粉	-14237
纯	-14238
舒	-14239
蓬	-14240
袋	-14241
變	-14242
赌	-14243
邊	-14244
邮	-14245
醉	-14246
铁	-14247
顶	-14248
ì	-14249
Č	-14250
›	-14251
乡	-14252
俩	-14253
俱	-14254
傻	-14255
兩	-14256
呆	-14257
咖	-14258
啡	-14259
國	-14260
埔	-14261
報	-14262
奋	-14263
寨	-14264
導	-14265
幫	-14266
扶	-14267
旋	-14268
李	-14269
桥	-14270
氯	-14271
涨	-14272
添	-14273
湾	-14274
漏	-14275
焦	-14276
牌	-14277
盛	-14278
硬	-14279
肥	-14280
舍	-14281
蓄	-14282
蓝	-14283
袖	-14284
赠	-14285
赦	-14286
辑	-14287
酸	-14288
钻	-14289
链	-14290
阴	-14291
雨	-14292
電	-14293
霍	-14294
骨	-14295
£	-14296
ն	-14297
−	-14298
乘	-14299
亨	-14300
冒	-14301
凭	-14302
叔	-14303
叶	-14304
吹	-14305
尖	-14306
彩	-14307
忌	-14308
愛	-14309
慰	-14310
扔	-14311
扭	-14312
披	-14313
拯	-14314
掩	-14315
攸	-14316
柱	-14317
棉	-14318
泳	-14319
溃	-14320
熟	-14321
甲	-14322
窗	-14323
胸	-14324
蜜	-14325
該	-14326
識	-14327
谎	-14328
辜	-14329
逊	-14330
酋	-14331
雄	-14332
震	-14333
驳	-14334
鲍	-14335
	-14336
	-14337
±	-14338
ћ	-14339
→	-14340
亦	-14341
佣	-14342
催	-14343
兑	-14344
勇	-14345
叛	-14346
唤	-14347
坎	-14348
埋	-14349
堪	-14350
壁	-14351
壮	-14352
奈	-14353
妓	-14354
宅	-14355
宿	-14356
尝	-14357
幾	-14358
廉	-14359
忠	-14360
恕	-14361
悔	-14362
扯	-14363
挖	-14364
搭	-14365
柏	-14366
椅	-14367
欺	-14368
泡	-14369
烧	-14370
牧	-14371
牲	-14372
猎	-14373
琳	-14374
璶	-14375
甜	-14376
盒	-14377
瞧	-14378
矿	-14379
竭	-14380
粗	-14381
糖	-14382
纵	-14383
罰	-14384
耻	-14385
聽	-14386
胀	-14387
脏	-14388
苗	-14389
荐	-14390
處	-14391
虚	-14392
誉	-14393
豁	-14394
豪	-14395
逼	-14396
長	-14397
關	-14398
闪	-14399
離	-14400
雪	-14401
頭	-14402
願	-14403
驾	-14404
骚	-14405
^	-14406
Í	-14407
×	-14408
ý	-14409
Τ	-14410
ի	-14411
ր	-14412
‰	-14413
亏	-14414
仪	-14415
伪	-14416
伸	-14417
偶	-14418
凶	-14419
刷	-14420
卓	-14421
厉	-14422
咬	-14423
哇	-14424
問	-14425
喷	-14426
嘱	-14427
囚	-14428
園	-14429
圾	-14430
垃	-14431
堕	-14432
姑	-14433
媽	-14434
孔	-14435
孙	-14436
宇	-14437
寡	-14438
御	-14439
怨	-14440
悼	-14441
惡	-14442
慎	-14443
慕	-14444
拳	-14445
拾	-14446
捍	-14447
旁	-14448
暖	-14449
朱	-14450
栏	-14451
樂	-14452
池	-14453
泥	-14454
润	-14455
潮	-14456
煤	-14457
熊	-14458
爷	-14459
爽	-14460
珍	-14461
疏	-14462
疟	-14463
痹	-14464
睛	-14465
矩	-14466
祈	-14467
秀	-14468
粹	-14469
糊	-14470
绿	-14471
缉	-14472
芒	-14473
苯	-14474
荡	-14475
菌	-14476
菜	-14477
虎	-14478
衰	-14479
览	-14480
語	-14481
诗	-14482
赚	-14483
跃	-14484
遏	-14485
選	-14486
錯	-14487
镜	-14488
靈	-14489
频	-14490
魂	-14491
鹿	-14492
¡	-14493
Å	-14494
Ø	-14495
Ž	-14496
ƒ	-14497
†	-14498
∗	-14499
丰	-14500
乃	-14501
云	-14502
僕	-14503
凝	-14504
剑	-14505
劣	-14506
匙	-14507
叠	-14508
咒	-14509
哀	-14510
哨	-14511
哺	-14512
唔	-14513
啸	-14514
圈	-14515
坠	-14516
妄	-14517
妞	-14518
姨	-14519
嫁	-14520
寺	-14521
寿	-14522
尘	-14523
幻	-14524
弥	-14525
悟	-14526
愚	-14527
慨	-14528
慷	-14529
戚	-14530
抑	-14531
挝	-14532
掘	-14533
插	-14534
携	-14535
摄	-14536
擊	-14537
斤	-14538
斥	-14539
柯	-14540
棘	-14541
殺	-14542
氛	-14543
決	-14544
沟	-14545
泄	-14546
洞	-14547
涅	-14548
淡	-14549
渴	-14550
滴	-14551
漆	-14552
潘	-14553
灌	-14554
烷	-14555
猪	-14556
痷	-14557
盗	-14558
矛	-14559
碞	-14560
秋	-14561
箭	-14562
義	-14563
肃	-14564
膨	-14565
臨	-14566
葛	-14567
葬	-14568
術	-14569
裕	-14570
視	-14571
計	-14572
請	-14573
論	-14574
诈	-14575
赁	-14576
赐	-14577
跪	-14578
車	-14579
辈	-14580
進	-14581
郎	-14582
铀	-14583
镑	-14584
間	-14585
驶	-14586
	-14587
	-14588
	-14589
¥	-14590
¿	-14591
È	-14592
÷	-14593
ą	-14594
ě	-14595
ī	-14596
ń	-14597
ū	-14598
ѕ	-14599
√	-14600
□	-14601
丑	-14602
佐	-14603
侣	-14604
倆	-14605
冬	-14606
刘	-14607
劲	-14608
勾	-14609
匹	-14610
卧	-14611
厘	-14612
叉	-14613
哎	-14614
哗	-14615
員	-14616
哲	-14617
唐	-14618
垒	-14619
堅	-14620
堆	-14621
堵	-14622
奠	-14623
娅	-14624
尿	-14625
屬	-14626
巫	-14627
師	-14628
帶	-14629
帽	-14630
復	-14631
怜	-14632
惹	-14633
懈	-14634
扮	-14635
揭	-14636
摸	-14637
擅	-14638
擎	-14639
敲	-14640
桶	-14641
械	-14642
氣	-14643
浮	-14644
滑	-14645
滩	-14646
滿	-14647
煽	-14648
猛	-14649
猫	-14650
珊	-14651
癌	-14652
睹	-14653
砍	-14654
砸	-14655
磺	-14656
祸	-14657
穦	-14658
粒	-14659
纂	-14660
羞	-14661
舱	-14662
舶	-14663
芝	-14664
芭	-14665
萬	-14666
蜂	-14667
詹	-14668
證	-14669
诱	-14670
谐	-14671
谤	-14672
轨	-14673
逗	-14674
逝	-14675
逻	-14676
邪	-14677
闯	-14678
陀	-14679
陛	-14680
隶	-14681
鞋	-14682
颗	-14683
颜	-14684
馈	-14685
馬	-14686
體	-14687
麽	-14688
鼠	-14689
	-14690
	-14691
	-14692
Á	-14693
Ê	-14694
Ô	-14695
û	-14696
ė	-14697
̈	-14698
ρ	-14699
υ	-14700
і	-14701
─	-14702
♫	-14703
ぐ	-14704
井	-14705
仁	-14706
伏	-14707
侦	-14708
備	-14709
傲	-14710
僚	-14711
優	-14712
凌	-14713
刮	-14714
劝	-14715
勋	-14716
動	-14717
協	-14718
卻	-14719
吊	-14720
呈	-14721
呵	-14722
唬	-14723
啤	-14724
啰	-14725
喊	-14726
噪	-14727
坑	-14728
塑	-14729
墓	-14730
姿	-14731
娃	-14732
嬰	-14733
學	-14734
宥	-14735
宫	-14736
尉	-14737
屈	-14738
屎	-14739
帅	-14740
幼	-14741
廊	-14742
強	-14743
怒	-14744
愈	-14745
愤	-14746
慧	-14747
抛	-14748
拓	-14749
拼	-14750
挠	-14751
挤	-14752
揽	-14753
搬	-14754
摇	-14755
斐	-14756
晋	-14757
晨	-14758
朵	-14759
東	-14760
枚	-14761
棕	-14762
横	-14763
歇	-14764
歡	-14765
殿	-14766
汞	-14767
洽	-14768
溴	-14769
漫	-14770
灰	-14771
炉	-14772
炎	-14773
爬	-14774
牢	-14775
牺	-14776
狄	-14777
狭	-14778
琐	-14779
田	-14780
畅	-14781
痴	-14782
睦	-14783
瞄	-14784
瞒	-14785
砰	-14786
硂	-14787
磨	-14788
祉	-14789
祥	-14790
祷	-14791
秒	-14792
簿	-14793
結	-14794
絲	-14795
纹	-14796
绕	-14797
绘	-14798
翁	-14799
翼	-14800
耍	-14801
耕	-14802
聪	-14803
肌	-14804
肚	-14805
肩	-14806
胖	-14807
胶	-14808
艘	-14809
薄	-14810
薯	-14811
裏	-14812
訴	-14813
証	-14814
議	-14815
護	-14816
诽	-14817
谊	-14818
貌	-14819
贿	-14820
赎	-14821
躲	-14822
辉	-14823
逍	-14824
連	-14825
遂	-14826
遠	-14827
邓	-14828
郁	-14829
錢	-14830
钥	-14831
铺	-14832
隊	-14833
饰	-14834
骑	-14835
鸣	-14836
리	-14837
의	-14838
장	-14839
호	-14840
	-14841
Ï	-14842
Ò	-14843
Ý	-14844
æ	-14845
ù	-14846
ł	-14847
ň	-14848
ő	-14849
ř	-14850
γ	-14851
ι	-14852
Ё	-14853
Є	-14854
ե	-14855
խ	-14856
₴	-14857
≥	-14858
■	-14859
●	-14860
〔	-14861
み	-14862
丙	-14863
亟	-14864
仑	-14865
仓	-14866
仗	-14867
仿	-14868
佑	-14869
佬	-14870
侯	-14871
倫	-14872
傷	-14873
兔	-14874
冠	-14875
凉	-14876
剛	-14877
勉	-14878
匮	-14879
厚	-14880
厨	-14881
君	-14882
吼	-14883
咋	-14884
咕	-14885
咪	-14886
唇	-14887
喉	-14888
嗒	-14889
嘉	-14890
垂	-14891
塌	-14892
塵	-14893
奎	-14894
宙	-14895
宠	-14896
宰	-14897
寂	-14898
寶	-14899
尺	-14900
峻	-14901
川	-14902
幹	-14903
幽	-14904
庸	-14905
弊	-14906
弧	-14907
弯	-14908
悬	-14909
愧	-14910
懒	-14911
懲	-14912
戮	-14913
拔	-14914
挨	-14915
挫	-14916
撑	-14917
據	-14918
擦	-14919
斜	-14920
斟	-14921
昆	-14922
晕	-14923
晤	-14924
枢	-14925
柔	-14926
梯	-14927
棍	-14928
機	-14929
權	-14930
歸	-14931
殴	-14932
毀	-14933
氏	-14934
氢	-14935
江	-14936
汰	-14937
泉	-14938
泪	-14939
浴	-14940
涌	-14941
液	-14942
淘	-14943
淹	-14944
渗	-14945
溉	-14946
溜	-14947
滞	-14948
澡	-14949
炼	-14950
熏	-14951
爭	-14952
狼	-14953
玉	-14954
琪	-14955
瑪	-14956
璃	-14957
瓶	-14958
畴	-14959
皿	-14960
盆	-14961
盈	-14962
盐	-14963
監	-14964
眠	-14965
睿	-14966
砷	-14967
碑	-14968
祟	-14969
禮	-14970
稣	-14971
稱	-14972
窄	-14973
窟	-14974
笆	-14975
笵	-14976
筒	-14977
篇	-14978
紙	-14979
維	-14980
纷	-14981
绪	-14982
缠	-14983
缮	-14984
罐	-14985
罢	-14986
羁	-14987
羊	-14988
翔	-14989
翩	-14990
聋	-14991
聲	-14992
肇	-14993
胺	-14994
腥	-14995
腿	-14996
臣	-14997
舆	-14998
興	-14999
艇	-15000
苍	-15001
茶	-15002
莲	-15003
萊	-15004
虧	-15005
蛮	-15006
蜡	-15007
衷	-15008
記	-15009
誠	-15010
讽	-15011
诅	-15012
贪	-15013
贱	-15014
赂	-15015
趕	-15016
趟	-15017
趴	-15018
蹈	-15019
蹟	-15020
躁	-15021
躺	-15022
軍	-15023
辣	-15024
辦	-15025
逾	-15026
達	-15027
钓	-15028
钩	-15029
铃	-15030
铲	-15031
锡	-15032
闹	-15033
陌	-15034
隧	-15035
雕	-15036
霉	-15037
靡	-15038
須	-15039
類	-15040
養	-15041
饼	-15042
驯	-15043
麗	-15044
돈	-15045
크	-15046
	-15047
	-15048
	-15049
	-15050
	-15051
	-15052
¢	-15053
Ì	-15054
Î	-15055
Õ	-15056
Ù	-15057
õ	-15058
ı	-15059
ķ	-15060
ľ	-15061
ō	-15062
œ	-15063
ś	-15064
̄	-15065
Β	-15066
Κ	-15067
ς	-15068
χ	-15069
Ћ	-15070
ұ	-15071
Ա	-15072
հ	-15073
ا	-15074
ع	-15075
ل	-15076
م	-15077
ي	-15078
‐	-15079
⇒	-15080
≈	-15081
≤	-15082
▪	-15083
ㄓ	-15084
ㄠ	-15085
丛	-15086
丟	-15087
串	-15088
亞	-15089
仆	-15090
仙	-15091
伞	-15092
侍	-15093
係	-15094
俘	-15095
俯	-15096
倚	-15097
傑	-15098
價	-15099
儀	-15100
償	-15101
冗	-15102
冯	-15103
凱	-15104
創	-15105
劃	-15106
勘	-15107
勝	-15108
匿	-15109
卵	-15110
卸	-15111
卿	-15112
厕	-15113
厲	-15114
县	-15115
吞	-15116
咦	-15117
哼	-15118
唆	-15119
啟	-15120
喋	-15121
嘘	-15122
嘲	-15123
嚴	-15124
囊	-15125
垄	-15126
壳	-15127
夕	-15128
夠	-15129
奏	-15130
奔	-15131
妆	-15132
妖	-15133
姬	-15134
婊	-15135
孽	-15136
寓	-15137
屏	-15138
岭	-15139
峡	-15140
崭	-15141
巡	-15142
巾	-15143
帖	-15144
庙	-15145
庞	-15146
廢	-15147
張	-15148
徐	-15149
忏	-15150
恭	-15151
悖	-15152
惕	-15153
慌	-15154
憶	-15155
懷	-15156
抬	-15157
拆	-15158
拐	-15159
拦	-15160
挚	-15161
挡	-15162
捉	-15163
捏	-15164
撿	-15165
擁	-15166
擇	-15167
敵	-15168
斡	-15169
旬	-15170
昧	-15171
昭	-15172
晒	-15173
晓	-15174
晰	-15175
書	-15176
朴	-15177
杆	-15178
杨	-15179
枯	-15180
桃	-15181
梳	-15182
棱	-15183
棵	-15184
業	-15185
榄	-15186
榜	-15187
構	-15188
槛	-15189
槽	-15190
樓	-15191
橄	-15192
橡	-15193
歪	-15194
歲	-15195
毙	-15196
氓	-15197
浏	-15198
浸	-15199
準	-15200
滾	-15201
灶	-15202
災	-15203
烂	-15204
烤	-15205
煎	-15206
煮	-15207
熬	-15208
狐	-15209
狙	-15210
狩	-15211
狮	-15212
猴	-15213
獄	-15214
獵	-15215
玷	-15216
珀	-15217
琴	-15218
琵	-15219
琼	-15220
甘	-15221
產	-15222
畜	-15223
番	-15224
疭	-15225
癸	-15226
皱	-15227
瞎	-15228
瞻	-15229
碌	-15230
磁	-15231
禽	-15232
稀	-15233
稲	-15234
窃	-15235
窍	-15236
筁	-15237
統	-15238
線	-15239
總	-15240
繼	-15241
纺	-15242
罩	-15243
羅	-15244
羽	-15245
翅	-15246
翠	-15247
耀	-15248
耽	-15249
聖	-15250
肆	-15251
肤	-15252
肺	-15253
胆	-15254
脂	-15255
脊	-15256
膏	-15257
膜	-15258
膝	-15259
臂	-15260
臉	-15261
舌	-15262
茫	-15263
萝	-15264
萧	-15265
蔑	-15266
蔓	-15267
薩	-15268
藉	-15269
蘭	-15270
號	-15271
蟼	-15272
衫	-15273
裝	-15274
裨	-15275
觀	-15276
託	-15277
詞	-15278
試	-15279
誤	-15280
諾	-15281
講	-15282
譴	-15283
讀	-15284
讚	-15285
讳	-15286
讶	-15287
诀	-15288
诵	-15289
谱	-15290
豆	-15291
貝	-15292
責	-15293
賽	-15294
赡	-15295
趁	-15296
跌	-15297
踏	-15298
踢	-15299
踩	-15300
辍	-15301
辟	-15302
辨	-15303
辭	-15304
迭	-15305
逢	-15306
醚	-15307
醫	-15308
釋	-15309
钉	-15310
钢	-15311
钮	-15312
锻	-15313
闷	-15314
陋	-15315
隘	-15316
際	-15317
隨	-15318
雾	-15319
霜	-15320
霸	-15321
鞭	-15322
頌	-15323
預	-15324
頓	-15325
領	-15326
題	-15327
颇	-15328
饶	-15329
骄	-15330
骼	-15331
鲸	-15332
鸦	-15333
鹰	-15334
麥	-15335
龟	-15336
너	-15337
들	-15338
라	-15339
로	-15340
빛	-15341
울	-15342
이	-15343
자	-15344
잿	-15345
	-15346
	-15347
	-15348
	-15349
	-15350
	-15351
	-15352
	-15353
	-15354
	-15355
À	-15356
Þ	-15357
ă	-15358
ď	-15359
đ	-15360
ē	-15361
ğ	-15362
İ	-15363
Ś	-15364
ź	-15365
ˇ	-15366
̇	-15367
Η	-15368
α	-15369
δ	-15370
η	-15371
λ	-15372
π	-15373
σ	-15374
ύ	-15375
Ў	-15376
Қ	-15377
қ	-15378
Հ	-15379
բ	-15380
գ	-15381
դ	-15382
մ	-15383
ս	-15384
տ	-15385
ة	-15386
ش	-15387
ق	-15388
ن	-15389
Ⴗ	-15390
ạ	-15391
‒	-15392
‹	-15393
₤	-15394
↓	-15395
∑	-15396
⊿	-15397
┤	-15398
►	-15399
▼	-15400
★	-15401
♦	-15402
〕	-15403
い	-15404
お	-15405
し	-15406
ぺ	-15407
り	-15408
ゴ	-15409
デ	-15410
ㄆ	-15411
丘	-15412
丫	-15413
乖	-15414
乙	-15415
乾	-15416
亂	-15417
伽	-15418
佔	-15419
侄	-15420
侮	-15421
側	-15422
傳	-15423
兆	-15424
兜	-15425
內	-15426
兽	-15427
冶	-15428
則	-15429
剪	-15430
務	-15431
勞	-15432
匀	-15433
匪	-15434
叨	-15435
叹	-15436
吐	-15437
吕	-15438
吟	-15439
呐	-15440
呗	-15441
呜	-15442
咄	-15443
咚	-15444
咻	-15445
哟	-15446
唠	-15447
喻	-15448
嗅	-15449
嗣	-15450
噜	-15451
噩	-15452
噬	-15453
圓	-15454
坍	-15455
垫	-15456
堤	-15457
場	-15458
塊	-15459
墜	-15460
墟	-15461
壞	-15462
夷	-15463
夹	-15464
妒	-15465
姊	-15466
娱	-15467
婦	-15468
嫂	-15469
孝	-15470
宋	-15471
宴	-15472
宵	-15473
寇	-15474
寞	-15475
寬	-15476
尬	-15477
尴	-15478
屡	-15479
岌	-15480
崎	-15481
帆	-15482
帜	-15483
弓	-15484
弘	-15485
徹	-15486
恒	-15487
恼	-15488
悄	-15489
悅	-15490
悦	-15491
悯	-15492
惜	-15493
惟	-15494
惶	-15495
愉	-15496
慮	-15497
憎	-15498
戶	-15499
扂	-15500
扇	-15501
扑	-15502
扛	-15503
扼	-15504
抄	-15505
抹	-15506
挣	-15507
捡	-15508
捨	-15509
掠	-15510
換	-15511
揪	-15512
搁	-15513
搅	-15514
搏	-15515
摁	-15516
擔	-15517
攒	-15518
攫	-15519
敞	-15520
斑	-15521
斷	-15522
晃	-15523
晴	-15524
晶	-15525
暑	-15526
曹	-15527
朮	-15528
杅	-15529
杉	-15530
杠	-15531
枉	-15532
枣	-15533
柄	-15534
柊	-15535
柴	-15536
栋	-15537
桩	-15538
梁	-15539
梗	-15540
梵	-15541
棚	-15542
椒	-15543
椰	-15544
楠	-15545
榈	-15546
榨	-15547
樟	-15548
樺	-15549
殃	-15550
毅	-15551
毗	-15552
汀	-15553
沥	-15554
沦	-15555
沸	-15556
沾	-15557
泣	-15558
洄	-15559
洱	-15560
浅	-15561
浆	-15562
涂	-15563
涕	-15564
涝	-15565
涯	-15566
淆	-15567
淋	-15568
淏	-15569
淤	-15570
淳	-15571
渊	-15572
渎	-15573
渺	-15574
溢	-15575
溺	-15576
滅	-15577
滕	-15578
滤	-15579
澤	-15580
炫	-15581
烙	-15582
烛	-15583
焚	-15584
焰	-15585
煌	-15586
煙	-15587
煩	-15588
熱	-15589
燕	-15590
爪	-15591
爹	-15592
牡	-15593
狸	-15594
猩	-15595
獲	-15596
玂	-15597
玄	-15598
玙	-15599
玫	-15600
珠	-15601
琅	-15602
瑕	-15603
瑙	-15604
瑰	-15605
瓣	-15606
甄	-15607
甩	-15608
疚	-15609
疵	-15610
疼	-15611
痒	-15612
痕	-15613
痪	-15614
痫	-15615
瘋	-15616
瘫	-15617
瘾	-15618
癖	-15619
癫	-15620
皂	-15621
皆	-15622
盔	-15623
盯	-15624
眖	-15625
睫	-15626
瞌	-15627
矫	-15628
矶	-15629
硝	-15630
碱	-15631
磀	-15632
礚	-15633
祭	-15634
禱	-15635
稰	-15636
窘	-15637
竖	-15638
竹	-15639
笼	-15640
筋	-15641
筛	-15642
粪	-15643
紀	-15644
約	-15645
紅	-15646
納	-15647
紐	-15648
紫	-15649
終	-15650
組	-15651
織	-15652
續	-15653
纤	-15654
纬	-15655
绌	-15656
缆	-15657
缸	-15658
罕	-15659
耿	-15660
聰	-15661
肖	-15662
肛	-15663
肠	-15664
肢	-15665
肾	-15666
胃	-15667
脉	-15668
脖	-15669
脫	-15670
腔	-15671
腦	-15672
腰	-15673
腹	-15674
腺	-15675
腾	-15676
膀	-15677
膽	-15678
臀	-15679
臘	-15680
臟	-15681
臺	-15682
舔	-15683
舟	-15684
舰	-15685
芙	-15686
芥	-15687
茂	-15688
茱	-15689
菠	-15690
萎	-15691
葉	-15692
蔚	-15693
蔬	-15694
蔽	-15695
蕉	-15696
蕴	-15697
蕾	-15698
薛	-15699
藝	-15700
藤	-15701
蛇	-15702
蛎	-15703
蛤	-15704
蝇	-15705
蟹	-15706
蠅	-15707
衔	-15708
補	-15709
裤	-15710
裸	-15711
討	-15712
誕	-15713
談	-15714
諸	-15715
謊	-15716
譬	-15717
诘	-15718
诬	-15719
谜	-15720
谦	-15721
谬	-15722
豚	-15723
豫	-15724
豹	-15725
貴	-15726
買	-15727
費	-15728
賀	-15729
賞	-15730
賣	-15731
賦	-15732
躬	-15733
轉	-15734
辄	-15735
辰	-15736
逸	-15737
運	-15738
違	-15739
郡	-15740
酗	-15741
酮	-15742
酱	-15743
銀	-15744
錄	-15745
鎮	-15746
鏘	-15747
鏡	-15748
鐵	-15749
钞	-15750
钦	-15751
铅	-15752
铎	-15753
铐	-15754
铸	-15755
镊	-15756
镣	-15757
門	-15758
閉	-15759
阀	-15760
阔	-15761
陸	-15762
隸	-15763
雌	-15764
鞠	-15765
顧	-15766
顱	-15767
飛	-15768
餓	-15769
饱	-15770
饲	-15771
饺	-15772
馅	-15773
驗	-15774
驰	-15775
驼	-15776
骆	-15777
魁	-15778
魅	-15779
魏	-15780
魯	-15781
鲨	-15782
鵝	-15783
鸭	-15784
鸿	-15785
麟	-15786
黨	-15787
齿	-15788
가	-15789
강	-15790
군	-15791
그	-15792
나	-15793
락	-15794
림	-15795
시	-15796
용	-15797
즈	-15798
지	-15799
진	-15800
철	-15801
퀀	-15802
클	-15803
황	-15804
	-15805
	-15806
	-15807
	-15808
	-15809
	-15810
	-15811
	-15812
	-15813
	-15814
	-15815
	-15816
Ë	-15817
þ	-15818
ę	-15819
ļ	-15820
Œ	-15821
Ş	-15822
ş	-15823
ţ	-15824
ű	-15825
ŵ	-15826
ư	-15827
ǎ	-15828
ʖ	-15829
ˋ	-15830
̅	-15831
Ό	-15832
Ε	-15833
Ν	-15834
Ο	-15835
Π	-15836
β	-15837
τ	-15838
ό	-15839
Ђ	-15840
ї	-15841
ў	-15842
џ	-15843
ҥ	-15844
һ	-15845
Ө	-15846
Ԥ	-15847
Գ	-15848
Ե	-15849
Կ	-15850
Մ	-15851
ը	-15852
ծ	-15853
կ	-15854
յ	-15855
ո	-15856
պ	-15857
ջ	-15858
ց	-15859
ւ	-15860
ע	-15861
آ	-15862
ئ	-15863
ت	-15864
د	-15865
ر	-15866
ز	-15867
س	-15868
ظ	-15869
ف	-15870
ك	-15871
و	-15872
ی	-15873
ं	-15874
क	-15875
ख	-15876
ण	-15877
द	-15878
ब	-15879
भ	-15880
र	-15881
ल	-15882
ष	-15883
ा	-15884
ु	-15885
ू	-15886
ක	-15887
න	-15888
ඹ	-15889
ර	-15890
ල	-15891
ව	-15892
ු	-15893
ො	-15894
๘	-15895
ဪ	-15896
ḑ	-15897
ṇ	-15898
ṣ	-15899
Ἧ	-15900
‭	-15901
※	-15902
∮	-15903
∼	-15904
├	-15905
┣	-15906
┿	-15907
╢	-15908
◄	-15909
○	-15910
◦	-15911
♥	-15912
➔	-15913
〈	-15914
〉	-15915
『	-15916
』	-15917
〝	-15918
〞	-15919
ぇ	-15920
そ	-15921
ち	-15922
の	-15923
ぱ	-15924
ぶ	-15925
れ	-15926
ゑ	-15927
ア	-15928
サ	-15929
ゼ	-15930
タ	-15931
ネ	-15932
フ	-15933
ヰ	-15934
ヶ	-15935
ㄇ	-15936
ㄈ	-15937
ㄛ	-15938
ㄨ	-15939
丐	-15940
乞	-15941
亥	-15942
亵	-15943
佽	-15944
侜	-15945
侠	-15946
侨	-15947
侶	-15948
俊	-15949
俟	-15950
俭	-15951
俾	-15952
倦	-15953
倩	-15954
偕	-15955
傀	-15956
傅	-15957
傘	-15958
傢	-15959
傣	-15960
債	-15961
傾	-15962
僅	-15963
僭	-15964
僳	-15965
僻	-15966
儡	-15967
兇	-15968
冤	-15969
冥	-15970
凑	-15971
凤	-15972
凸	-15973
凹	-15974
刃	-15975
剔	-15976
剣	-15977
劇	-15978
劑	-15979
勢	-15980
勵	-15981
勿	-15982
匠	-15983
卦	-15984
厭	-15985
參	-15986
叟	-15987
叩	-15988
叭	-15989
叮	-15990
吋	-15991
